#ifdef __has_attribute
#define HAVE_ATTRIBUTE(x) __has_attribute(x)
#else
#define HAVE_ATTRIBUTE(x) 0
#endif
#if HAVE_ATTRIBUTE(aligned) || (defined(__GNUC__) && !defined(__clang__))
#define DATA_ALIGN_ATTRIBUTE __attribute__((aligned(4)))
#else
#define DATA_ALIGN_ATTRIBUTE
#endif

const unsigned char model_data[] DATA_ALIGN_ATTRIBUTE = {0x1c, 0x00, 0x00, 0x00, 0x54, 0x46, 0x4c, 0x33, 0x14, 0x00, 0x20, 0x00, 0x04, 0x00, 0x08, 0x00, 0x0c, 0x00, 0x10, 0x00, 0x14, 0x00, 0x00, 0x00, 0x18, 0x00, 0x1c, 0x00, 0x14, 0x00, 0x00, 0x00, 0x03, 0x00, 0x00, 0x00, 0x18, 0x00, 0x00, 0x00, 0x20, 0x00, 0x00, 0x00, 0xa4, 0x00, 0x00, 0x00, 0x20, 0x00, 0x00, 0x00, 0x4c, 0x00, 0x00, 0x00, 0x44, 0x00, 0x00, 0x00, 0x02, 0x00, 0x00, 0x00, 0xb8, 0x02, 0x00, 0x00, 0x54, 0x01, 0x00, 0x00, 0x01, 0x00, 0x00, 0x00, 0xa8, 0x00, 0x00, 0x00, 0x0a, 0x00, 0x00, 0x00, 0x44, 0x26, 0x00, 0x00, 0x40, 0x26, 0x00, 0x00, 0x24, 0x25, 0x00, 0x00, 0xa0, 0x24, 0x00, 0x00, 0x48, 0x04, 0x00, 0x00, 0x30, 0x03, 0x00, 0x00, 0x2c, 0x26, 0x00, 0x00, 0x28, 0x26, 0x00, 0x00, 0x24, 0x26, 0x00, 0x00, 0x3c, 0x00, 0x00, 0x00, 0x00, 0x00, 0x00, 0x00, 0x01, 0x00, 0x00, 0x00, 0x0c, 0x00, 0x00, 0x00, 0x08, 0x00, 0x0c, 0x00, 0x04, 0x00, 0x08, 0x00, 0x08, 0x00, 0x00, 0x00, 0x08, 0x00, 0x00, 0x00, 0x09, 0x00, 0x00, 0x00, 0x13, 0x00, 0x00, 0x00, 0x6d, 0x69, 0x6e, 0x5f, 0x72, 0x75, 0x6e, 0x74, 0x69, 0x6d, 0x65, 0x5f, 0x76, 0x65, 0x72, 0x73, 0x69, 0x6f, 0x6e, 0x00, 0x3a, 0xdb, 0xff, 0xff, 0x04, 0x00, 0x00, 0x00, 0x10, 0x00, 0x00, 0x00, 0x31, 0x2e, 0x35, 0x2e, 0x30, 0x00, 0x00, 0x00, 0x00, 0x00, 0x00, 0x00, 0x00, 0x00, 0x00, 0x00, 0x0f, 0x00, 0x00, 0x00, 0x4d, 0x4c, 0x49, 0x52, 0x20, 0x43, 0x6f, 0x6e, 0x76, 0x65, 0x72, 0x74, 0x65, 0x64, 0x2e, 0x00, 0x00, 0x00, 0x0e, 0x00, 0x18, 0x00, 0x04, 0x00, 0x08, 0x00, 0x0c, 0x00, 0x10, 0x00, 0x14, 0x00, 0x0e, 0x00, 0x00, 0x00, 0x14, 0x00, 0x00, 0x00, 0x34, 0x00, 0x00, 0x00, 0x38, 0x00, 0x00, 0x00, 0x3c, 0x00, 0x00, 0x00, 0x48, 0x00, 0x00, 0x00, 0x08, 0x00, 0x00, 0x00, 0x3c, 0x25, 0x00, 0x00, 0xc8, 0x24, 0x00, 0x00, 0x00, 0x24, 0x00, 0x00, 0x9c, 0x23, 0x00, 0x00, 0x44, 0x03, 0x00, 0x00, 0xe4, 0x01, 0x00, 0x00, 0x04, 0x01, 0x00, 0x00, 0x7c, 0x00, 0x00, 0x00, 0x01, 0x00, 0x00, 0x00, 0x00, 0x00, 0x00, 0x00, 0x01, 0x00, 0x00, 0x00, 0x07, 0x00, 0x00, 0x00, 0x03, 0x00, 0x00, 0x00, 0x6c, 0x01, 0x00, 0x00, 0xb4, 0x00, 0x00, 0x00, 0x1c, 0x00, 0x00, 0x00, 0x04, 0x00, 0x00, 0x00, 0x6d, 0x61, 0x69, 0x6e, 0x00, 0x00, 0x0e, 0x00, 0x18, 0x00, 0x08, 0x00, 0x0c, 0x00, 0x10, 0x00, 0x07, 0x00, 0x14, 0x00, 0x0e, 0x00, 0x00, 0x00, 0x00, 0x00, 0x00, 0x09, 0x01, 0x00, 0x00, 0x00, 0x1c, 0x00, 0x00, 0x00, 0x10, 0x00, 0x00, 0x00, 0x04, 0x00, 0x00, 0x00, 0x06, 0xdc, 0xff, 0xff, 0x00, 0x00, 0x80, 0x3f, 0x01, 0x00, 0x00, 0x00, 0x07, 0x00, 0x00, 0x00, 0x01, 0x00, 0x00, 0x00, 0x06, 0x00, 0x00, 0x00, 0xac, 0xfe, 0xff, 0xff, 0x19, 0x00, 0x00, 0x00, 0x00, 0x00, 0x00, 0x19, 0x01, 0x00, 0x00, 0x00, 0x70, 0xdb, 0xff, 0xff, 0x14, 0x00, 0x00, 0x00, 0x08, 0x00, 0x00, 0x00, 0x18, 0x00, 0x00, 0x00, 0x30, 0x00, 0x00, 0x00, 0x20, 0x00, 0x00, 0x00, 0x02, 0x00, 0x00, 0x00, 0x01, 0x00, 0x00, 0x00, 0x03, 0x00, 0x00, 0x00, 0x08, 0x00, 0x00, 0x00, 0x49, 0x64, 0x65, 0x6e, 0x74, 0x69, 0x74, 0x79, 0x00, 0x00, 0x00, 0x00, 0x02, 0x00, 0x00, 0x00, 0xff, 0xff, 0xff, 0xff, 0x03, 0x00, 0x00, 0x00, 0x78, 0xdc, 0xff, 0xff, 0x00, 0x00, 0x0e, 0x00, 0x14, 0x00, 0x00, 0x00, 0x08, 0x00, 0x0c, 0x00, 0x07, 0x00, 0x10, 0x00, 0x0e, 0x00, 0x00, 0x00, 0x00, 0x00, 0x00, 0x08, 0x18, 0x00, 0x00, 0x00, 0x0c, 0x00, 0x00, 0x00, 0x04, 0x00, 0x00, 0x00, 0x7c, 0xdb, 0xff, 0xff, 0x01, 0x00, 0x00, 0x00, 0x06, 0x00, 0x00, 0x00, 0x03, 0x00, 0x00, 0x00, 0x05, 0x00, 0x00, 0x00, 0x04, 0x00, 0x00, 0x00, 0x02, 0x00, 0x00, 0x00, 0xf4, 0xdb, 0xff, 0xff, 0x14, 0x00, 0x00, 0x00, 0x07, 0x00, 0x00, 0x00, 0x18, 0x00, 0x00, 0x00, 0x60, 0x00, 0x00, 0x00, 0x50, 0x00, 0x00, 0x00, 0x02, 0x00, 0x00, 0x00, 0x01, 0x00, 0x00, 0x00, 0x03, 0x00, 0x00, 0x00, 0x3a, 0x00, 0x00, 0x00, 0x73, 0x65, 0x71, 0x75, 0x65, 0x6e, 0x74, 0x69, 0x61, 0x6c, 0x5f, 0x39, 0x2f, 0x64, 0x65, 0x6e, 0x73, 0x65, 0x5f, 0x32, 0x33, 0x2f, 0x4d, 0x61, 0x74, 0x4d, 0x75, 0x6c, 0x3b, 0x73, 0x65, 0x71, 0x75, 0x65, 0x6e, 0x74, 0x69, 0x61, 0x6c, 0x5f, 0x39, 0x2f, 0x64, 0x65, 0x6e, 0x73, 0x65, 0x5f, 0x32, 0x33, 0x2f, 0x42, 0x69, 0x61, 0x73, 0x41, 0x64, 0x64, 0x00, 0x00, 0x02, 0x00, 0x00, 0x00, 0xff, 0xff, 0xff, 0xff, 0x03, 0x00, 0x00, 0x00, 0x2c, 0xdd, 0xff, 0xff, 0x00, 0x00, 0x0e, 0x00, 0x16, 0x00, 0x00, 0x00, 0x08, 0x00, 0x0c, 0x00, 0x07, 0x00, 0x10, 0x00, 0x0e, 0x00, 0x00, 0x00, 0x00, 0x00, 0x00, 0x08, 0x24, 0x00, 0x00, 0x00, 0x18, 0x00, 0x00, 0x00, 0x0c, 0x00, 0x00, 0x00, 0x00, 0x00, 0x06, 0x00, 0x08, 0x00, 0x07, 0x00, 0x06, 0x00, 0x00, 0x00, 0x00, 0x00, 0x00, 0x01, 0x01, 0x00, 0x00, 0x00, 0x05, 0x00, 0x00, 0x00, 0x03, 0x00, 0x00, 0x00, 0x00, 0x00, 0x00, 0x00, 0x03, 0x00, 0x00, 0x00, 0x01, 0x00, 0x00, 0x00, 0x0c, 0x00, 0x10, 0x00, 0x0b, 0x00, 0x00, 0x00, 0x0c, 0x00, 0x04, 0x00, 0x0c, 0x00, 0x00, 0x00, 0x09, 0x00, 0x00, 0x00, 0x00, 0x00, 0x00, 0x09, 0x01, 0x00, 0x00, 0x00, 0xd0, 0xdc, 0xff, 0xff, 0x14, 0x00, 0x00, 0x00, 0x06, 0x00, 0x00, 0x00, 0x18, 0x00, 0x00, 0x00, 0x7c, 0x00, 0x00, 0x00, 0x6c, 0x00, 0x00, 0x00, 0x02, 0x00, 0x00, 0x00, 0x01, 0x00, 0x00, 0x00, 0x10, 0x00, 0x00, 0x00, 0x55, 0x00, 0x00, 0x00, 0x73, 0x65, 0x71, 0x75, 0x65, 0x6e, 0x74, 0x69, 0x61, 0x6c, 0x5f, 0x39, 0x2f, 0x64, 0x65, 0x6e, 0x73, 0x65, 0x5f, 0x32, 0x32, 0x2f, 0x4d, 0x61, 0x74, 0x4d, 0x75, 0x6c, 0x3b, 0x73, 0x65, 0x71, 0x75, 0x65, 0x6e, 0x74, 0x69, 0x61, 0x6c, 0x5f, 0x39, 0x2f, 0x64, 0x65, 0x6e, 0x73, 0x65, 0x5f, 0x32, 0x32, 0x2f, 0x52, 0x65, 0x6c, 0x75, 0x3b, 0x73, 0x65, 0x71, 0x75, 0x65, 0x6e, 0x74, 0x69, 0x61, 0x6c, 0x5f, 0x39, 0x2f, 0x64, 0x65, 0x6e, 0x73, 0x65, 0x5f, 0x32, 0x32, 0x2f, 0x42, 0x69, 0x61, 0x73, 0x41, 0x64, 0x64, 0x00, 0x00, 0x00, 0x02, 0x00, 0x00, 0x00, 0xff, 0xff, 0xff, 0xff, 0x10, 0x00, 0x00, 0x00, 0x00, 0xdd, 0xff, 0xff, 0x1e, 0xde, 0xff, 0xff, 0x04, 0x00, 0x00, 0x00, 0xc0, 0x00, 0x00, 0x00, 0x30, 0x58, 0x05, 0xbf, 0x11, 0x2d, 0x98, 0xbe, 0x2f, 0xd4, 0x26, 0xc0, 0x96, 0x20, 0x84, 0xbb, 0x62, 0x78, 0x2a, 0xc0, 0xcc, 0xc0, 0x3a, 0xbf, 0x65, 0x38, 0x0b, 0xc0, 0xd7, 0xf1, 0xc2, 0xbf, 0x21, 0xfc, 0x81, 0xbe, 0x62, 0xc4, 0x86, 0xbe, 0x1d, 0xc7, 0xb9, 0x3e, 0x48, 0x6b, 0xd3, 0x3d, 0xdf, 0x39, 0x3d, 0xbf, 0xdf, 0xc1, 0xb8, 0xbf, 0xb9, 0xab, 0x9b, 0x3d, 0xc7, 0x66, 0xdb, 0xbf, 0xb4, 0x37, 0x0e, 0x3d, 0xe0, 0x32, 0x13, 0xc0, 0xd9, 0x39, 0x5e, 0xc0, 0x05, 0xb0, 0xf4, 0xbf, 0x20, 0xd3, 0xdf, 0xbe, 0x1e, 0x69, 0x69, 0xbd, 0x42, 0xb7, 0xcb, 0xbe, 0x30, 0x90, 0xd7, 0x3e, 0x63, 0xe7, 0xf1, 0x3e, 0x88, 0x5c, 0x61, 0xbf, 0xe1, 0xc7, 0x86, 0x3e, 0xf6, 0x7d, 0x8b, 0x3e, 0x93, 0x01, 0xae, 0x3d, 0x64, 0x1d, 0x8b, 0xbf, 0x3e, 0x44, 0x3d, 0xbf, 0x89, 0x59, 0xcd, 0x3f, 0xd2, 0xe3, 0x01, 0x40, 0x87, 0x7a, 0xc2, 0xbe, 0x60, 0xc2, 0xbd, 0x3f, 0x1e, 0x74, 0x7f, 0x3f, 0x23, 0x5d, 0x01, 0x3f, 0x78, 0x58, 0x0d, 0xc0, 0x46, 0x7a, 0x64, 0xbf, 0x0f, 0x3c, 0x7d, 0xc0, 0x39, 0x51, 0xc3, 0xbf, 0xfe, 0x3e, 0x05, 0xc0, 0x66, 0x60, 0xab, 0xbf, 0x5f, 0xee, 0xe6, 0xbf, 0x4d, 0x11, 0x26, 0xc0, 0xd0, 0xe0, 0x12, 0x40, 0x11, 0x73, 0x13, 0xbf, 0x72, 0xa3, 0x46, 0xc0, 0x96, 0xde, 0xff, 0xff, 0x10, 0x00, 0x00, 0x00, 0x05, 0x00, 0x00, 0x00, 0x14, 0x00, 0x00, 0x00, 0x34, 0x00, 0x00, 0x00, 0x02, 0x00, 0x00, 0x00, 0x03, 0x00, 0x00, 0x00, 0x10, 0x00, 0x00, 0x00, 0x1c, 0x00, 0x00, 0x00, 0x73, 0x65, 0x71, 0x75, 0x65, 0x6e, 0x74, 0x69, 0x61, 0x6c, 0x5f, 0x39, 0x2f, 0x64, 0x65, 0x6e, 0x73, 0x65, 0x5f, 0x32, 0x33, 0x2f, 0x4d, 0x61, 0x74, 0x4d, 0x75, 0x6c, 0x00, 0x00, 0x00, 0x00, 0x14, 0xde, 0xff, 0xff, 0x32, 0xdf, 0xff, 0xff, 0x04, 0x00, 0x00, 0x00, 0x00, 0x20, 0x00, 0x00, 0xcb, 0xfc, 0x80, 0xbf, 0x2c, 0x8d, 0xf3, 0xbe, 0x53, 0x51, 0x0a, 0xbf, 0x34, 0x00, 0xad, 0xbe, 0xb4, 0x04, 0x86, 0x3d, 0x25, 0xe9, 0xc4, 0xbd, 0x78, 0x84, 0x83, 0x3d, 0xaa, 0x58, 0x94, 0x3e, 0xf1, 0x8f, 0x2c, 0x3e, 0x7d, 0xf3, 0xa4, 0xbe, 0x42, 0xa1, 0x23, 0xbf, 0x31, 0x8d, 0xed, 0xbe, 0xc9, 0xfa, 0xb2, 0xbe, 0xd6, 0x1d, 0x61, 0xbd, 0xf4, 0x7a, 0x5f, 0x3e, 0x7f, 0x2b, 0x00, 0x3f, 0xda, 0xb0, 0x12, 0x3e, 0x58, 0x1f, 0x60, 0x3c, 0x3f, 0x46, 0x3c, 0x3d, 0x3c, 0xe9, 0xf0, 0x3d, 0x19, 0x5b, 0xb9, 0xbe, 0x86, 0x1d, 0x0f, 0xbf, 0x17, 0x38, 0xb6, 0xbe, 0x39, 0xf6, 0x52, 0xbe, 0xf8, 0x51, 0x9b, 0xbc, 0xda, 0x25, 0x23, 0xbf, 0xd2, 0xb0, 0x08, 0xbd, 0xb7, 0xb2, 0x3c, 0x3e, 0xe1, 0xb5, 0x03, 0xbf, 0x8a, 0x3d, 0x31, 0xbf, 0x94, 0x4f, 0x6a, 0xbe, 0x44, 0x28, 0x99, 0xbe, 0xf9, 0xfa, 0x88, 0xbc, 0x4a, 0xe4, 0x3c, 0xbe, 0xb9, 0x64, 0x3d, 0xbf, 0x8a, 0xc7, 0x91, 0xbf, 0x0d, 0xde, 0x53, 0xbe, 0x90, 0x59, 0xbf, 0xbc, 0xce, 0xa0, 0xe5, 0xbd, 0xfa, 0x89, 0xd5, 0xbd, 0xda, 0x9e, 0xdc, 0x3d, 0x55, 0xed, 0xb1, 0x3e, 0xf2, 0x9d, 0x28, 0xbf, 0xe8, 0xd3, 0x81, 0xbf, 0x30, 0x07, 0xba, 0xbe, 0x60, 0xad, 0x80, 0x3e, 0x61, 0x55, 0x94, 0xbe, 0x35, 0xd6, 0x36, 0xbf, 0xbb, 0xbf, 0x6f, 0xbe, 0x3b, 0x55, 0x5b, 0x3e, 0xb0, 0xf3, 0x68, 0xbe, 0x65, 0x4c, 0x03, 0xbf, 0x41, 0x8c, 0x8a, 0xbe, 0xc1, 0xa6, 0xc2, 0xbd, 0x21, 0xf0, 0x5f, 0xbe, 0x3c, 0x8f, 0x30, 0xbe, 0x60, 0x30, 0x3a, 0xbf, 0xa6, 0xea, 0xf1, 0xbe, 0x1b, 0x17, 0x28, 0xbf, 0x0c, 0x85, 0x1d, 0xbf, 0x73, 0xb6, 0x91, 0xbe, 0xa9, 0xf7, 0x6f, 0xbd, 0xe0, 0x72, 0x57, 0x3e, 0xf2, 0xad, 0xa8, 0xbe, 0x8e, 0x1c, 0xbd, 0xbe, 0x76, 0x93, 0x32, 0xbf, 0x11, 0xbc, 0x86, 0xbd, 0x8f, 0x9b, 0xea, 0xbe, 0xce, 0xc5, 0x3d, 0xbf, 0x75, 0x00, 0x0b, 0xbf, 0x85, 0x0d, 0xb2, 0x3e, 0xef, 0x10, 0x41, 0x3e, 0x97, 0x1d, 0x1d, 0x3d, 0xc9, 0xf2, 0xe4, 0xbe, 0xe8, 0x45, 0x6a, 0xbf, 0x21, 0x4e, 0x2c, 0xbf, 0x66, 0x6c, 0xd8, 0xbe, 0xe4, 0x38, 0x18, 0xbf, 0x13, 0xac, 0xde, 0xbe, 0xbc, 0x75, 0x67, 0xbf, 0xd3, 0x7a, 0xc0, 0xbe, 0x9f, 0xde, 0x0a, 0xbe, 0xea, 0x1d, 0xb5, 0xbe, 0x7f, 0x33, 0x5f, 0xbf, 0x3a, 0xa6, 0x41, 0xbe, 0xe7, 0x05, 0xd7, 0x3d, 0x36, 0xea, 0x94, 0xbe, 0xdf, 0x1f, 0x88, 0xbf, 0x5b, 0x10, 0x10, 0xbf, 0x3e, 0x0c, 0x0e, 0xbf, 0x92, 0x14, 0xe7, 0xbe, 0x39, 0xaa, 0xec, 0xbd, 0xe0, 0x57, 0x66, 0xbe, 0x5b, 0x51, 0xc9, 0x3e, 0xad, 0x8c, 0x28, 0x3f, 0xad, 0xc7, 0xae, 0x3e, 0xfa, 0x4a, 0x45, 0xbf, 0x34, 0x1c, 0x37, 0xbf, 0x2c, 0x40, 0x21, 0xbf, 0x49, 0x0b, 0xb8, 0xbe, 0x3b, 0x39, 0x59, 0xbf, 0xa4, 0x80, 0x0c, 0xbf, 0x09, 0xa1, 0xca, 0x3d, 0xdf, 0x43, 0x3d, 0x3e, 0xe8, 0xb8, 0x1a, 0x3e, 0x93, 0xc7, 0xa1, 0xbe, 0x54, 0x08, 0x1e, 0xbf, 0xa6, 0x59, 0x86, 0xbe, 0x9b, 0x79, 0xbc, 0x3d, 0xa2, 0x85, 0x04, 0xbf, 0xea, 0x93, 0x0c, 0xbf, 0xf1, 0xeb, 0x3b, 0x3e, 0xd2, 0x7a, 0x08, 0xbd, 0x30, 0xf4, 0xc1, 0xbe, 0xf5, 0xee, 0xce, 0x3d, 0x96, 0x6c, 0x35, 0xbe, 0x78, 0x8e, 0xcb, 0xbd, 0x15, 0xae, 0xab, 0x3c, 0xa2, 0xd8, 0xce, 0xbe, 0xa8, 0x7b, 0x8b, 0xbe, 0x22, 0x64, 0x29, 0x3c, 0xd4, 0x2c, 0xf0, 0x3d, 0xbf, 0x83, 0x0d, 0xbf, 0xab, 0x81, 0x9c, 0xbe, 0x04, 0xa9, 0x01, 0xbf, 0x13, 0xfb, 0x96, 0xbe, 0x9c, 0x38, 0xfa, 0xbe, 0x37, 0x3d, 0x6f, 0xbf, 0x30, 0x9f, 0x6d, 0xbe, 0x28, 0xe2, 0x0c, 0x3e, 0x37, 0x26, 0x8e, 0xbe, 0x95, 0x06, 0xcb, 0xbe, 0x5a, 0xca, 0x48, 0x3c, 0xdf, 0x97, 0xd7, 0xbd, 0xb4, 0x70, 0x1a, 0xbf, 0x81, 0x51, 0x5c, 0xbf, 0xac, 0xa4, 0x70, 0xbe, 0x29, 0xf7, 0xf6, 0x3e, 0x00, 0xcb, 0x10, 0x3f, 0xd6, 0xc4, 0xac, 0x3e, 0x14, 0xd7, 0x2c, 0x3f, 0x51, 0x97, 0x14, 0x3f, 0xfb, 0xb6, 0xbb, 0xbe, 0x08, 0x47, 0x2a, 0xbf, 0x35, 0x13, 0xa6, 0xbe, 0xbd, 0xbe, 0x52, 0x3d, 0x3a, 0x6e, 0xb0, 0xbe, 0x83, 0x26, 0xaf, 0xbe, 0xb8, 0x4c, 0x77, 0xbd, 0x36, 0xb5, 0xd4, 0x3d, 0x58, 0xd3, 0x24, 0xb9, 0xa9, 0x32, 0x35, 0x3e, 0x08, 0x5c, 0x42, 0x3f, 0xe9, 0x0e, 0x12, 0x3f, 0x77, 0x19, 0x04, 0x3f, 0xe4, 0xd9, 0xc0, 0x3e, 0xdd, 0xc6, 0x41, 0xbf, 0x1a, 0x78, 0x58, 0xbf, 0x95, 0x69, 0x0e, 0xbe, 0xc4, 0x7a, 0x46, 0x3d, 0x37, 0x49, 0xce, 0xbe, 0xb1, 0xbc, 0xc0, 0xbe, 0xab, 0x73, 0x4e, 0xbe, 0x03, 0x16, 0x3b, 0xbd, 0x00, 0x50, 0x00, 0x3f, 0x55, 0x56, 0x6e, 0x3f, 0x9b, 0x67, 0x38, 0x3f, 0xf4, 0x27, 0x4c, 0x3f, 0xfe, 0x60, 0x8f, 0x3e, 0xaf, 0xc1, 0x94, 0xbd, 0x25, 0x00, 0x10, 0x3d, 0xd3, 0x6e, 0xe1, 0x3e, 0x8f, 0x5c, 0x10, 0x3e, 0x21, 0xd6, 0x0d, 0xbf, 0x03, 0x54, 0x93, 0x3d, 0x79, 0xee, 0x0e, 0x3f, 0xfe, 0xbf, 0xef, 0x3e, 0x29, 0x99, 0x1b, 0xbf, 0xbb, 0x62, 0xe0, 0xbe, 0x75, 0x45, 0x44, 0xbe, 0x29, 0xa5, 0x01, 0x3e, 0x57, 0x6f, 0xd0, 0xbd, 0x6c, 0x9b, 0x83, 0xbe, 0x8b, 0xfc, 0xc5, 0xbe, 0x78, 0x31, 0x94, 0xbd, 0xf1, 0x8a, 0xa6, 0x3e, 0xeb, 0xa9, 0xb8, 0x3d, 0x34, 0x4d, 0xc6, 0xbc, 0x37, 0x7e, 0xc8, 0x3e, 0xea, 0xb0, 0x0d, 0x3e, 0xe1, 0xca, 0xc7, 0xbd, 0x33, 0x99, 0xef, 0x3e, 0xbb, 0x11, 0x98, 0xbd, 0x6e, 0x7b, 0xfb, 0xbe, 0x86, 0xb6, 0x2d, 0xbe, 0xba, 0xe9, 0x0c, 0x3f, 0x61, 0xee, 0x10, 0x3e, 0x74, 0x95, 0x3e, 0xbc, 0x41, 0x97, 0xce, 0xbd, 0x33, 0x42, 0x27, 0xbe, 0xfc, 0xe1, 0x7e, 0x3e, 0x8e, 0x7a, 0xbf, 0x3e, 0x12, 0xab, 0xd8, 0x3e, 0x23, 0x11, 0x17, 0xbd, 0xa5, 0x1a, 0xd3, 0xbe, 0x04, 0xe2, 0xa5, 0xbd, 0xe5, 0x20, 0xc2, 0xbd, 0xbb, 0x4f, 0xe0, 0x3d, 0x79, 0x2e, 0x09, 0xbf, 0xf5, 0x7b, 0x14, 0xbf, 0x0f, 0x6a, 0xe8, 0xbd, 0x8b, 0x58, 0xc9, 0x3e, 0x21, 0xe9, 0xb5, 0xbc, 0x45, 0x85, 0xb7, 0xbd, 0xad, 0x33, 0x1f, 0x3e, 0x52, 0xdc, 0x43, 0xbe, 0xa1, 0x0e, 0x1c, 0x3e, 0xe1, 0xf0, 0x43, 0x3d, 0x78, 0x78, 0xb5, 0xbe, 0x06, 0xcf, 0x57, 0xbf, 0x09, 0xba, 0x0e, 0xbf, 0xe2, 0x94, 0xe9, 0x3e, 0x68, 0xa2, 0xc5, 0x3e, 0x7c, 0x30, 0x22, 0x3e, 0xd1, 0xa4, 0xc7, 0x3e, 0xab, 0x59, 0x32, 0x3f, 0x38, 0x69, 0xff, 0x3e, 0xae, 0x62, 0x6d, 0xbd, 0xf7, 0x6c, 0x52, 0xbf, 0x0a, 0xc9, 0x38, 0xbf, 0xda, 0xab, 0x80, 0xbe, 0x0c, 0x7c, 0xf6, 0xbe, 0xe6, 0x0b, 0xc1, 0xbd, 0x32, 0xae, 0x96, 0xbe, 0x43, 0x12, 0x8f, 0xbe, 0x00, 0xb7, 0xa7, 0x3e, 0x96, 0x98, 0x62, 0x3e, 0x50, 0x15, 0xd7, 0x3e, 0x88, 0xe7, 0x44, 0x3f, 0x7d, 0xa6, 0x00, 0x3e, 0xd7, 0xeb, 0x68, 0xbe, 0x8f, 0xf2, 0x9e, 0x3d, 0xc4, 0xd0, 0x15, 0x3d, 0xbe, 0xa5, 0xe5, 0xbe, 0x9e, 0x95, 0x84, 0xbf, 0xe9, 0x73, 0x37, 0xbf, 0x27, 0x06, 0x40, 0xbe, 0x53, 0x5a, 0x1a, 0x3f, 0xd5, 0xc8, 0x95, 0x3d, 0xa5, 0x21, 0xaf, 0x3e, 0x87, 0xb5, 0x07, 0x3e, 0xa3, 0x21, 0x93, 0xbe, 0xa0, 0x5a, 0x88, 0x3e, 0xd8, 0x5d, 0x17, 0x3f, 0x0d, 0x30, 0xdf, 0x3e, 0xdf, 0x9b, 0x85, 0xbe, 0xd5, 0x4f, 0xd8, 0x3e, 0x6d, 0x53, 0xef, 0xbd, 0x0f, 0x4d, 0x21, 0xbf, 0xa8, 0x5e, 0x09, 0xbf, 0x11, 0xd8, 0xe3, 0x3e, 0x7e, 0x22, 0x2a, 0xbe, 0x92, 0x6f, 0xf3, 0xbe, 0xbe, 0x2f, 0x55, 0xbd, 0x68, 0xaf, 0xd6, 0x3e, 0xc5, 0xd1, 0x12, 0x3e, 0xe5, 0x71, 0x80, 0x3d, 0x8f, 0xf5, 0xc1, 0x3d, 0x76, 0x5e, 0x09, 0xbe, 0xba, 0xfb, 0x5a, 0x3d, 0x89, 0x01, 0xc1, 0xbc, 0xba, 0xcc, 0x8a, 0x3d, 0xfb, 0xac, 0x17, 0xbe, 0x53, 0x19, 0xb0, 0xbe, 0x0a, 0x5b, 0xc2, 0xbd, 0xbd, 0x60, 0xe6, 0x3e, 0x2f, 0x6c, 0x34, 0x3f, 0x0f, 0x3e, 0xbd, 0x3e, 0x61, 0xb9, 0x0b, 0xbe, 0x09, 0x0b, 0xe2, 0xbe, 0xcc, 0x1f, 0xed, 0x3d, 0xf7, 0xb0, 0x6a, 0xbe, 0x37, 0x2c, 0xd4, 0xbe, 0x4f, 0xb9, 0x10, 0x3d, 0xa2, 0x3d, 0x70, 0x3d, 0x26, 0xdc, 0x4e, 0x3e, 0x2c, 0x1c, 0x36, 0x3f, 0x11, 0xcb, 0x8f, 0x3e, 0xfe, 0xad, 0x19, 0xbe, 0x3a, 0xb2, 0x82, 0xbe, 0xc3, 0x4c, 0x46, 0x3d, 0x63, 0x13, 0xcd, 0xbd, 0xc3, 0x67, 0xc9, 0xbe, 0xd3, 0xf7, 0xcf, 0xbe, 0xa1, 0xfe, 0x89, 0xbe, 0x14, 0x18, 0x20, 0x3f, 0x78, 0xdf, 0x2f, 0xbe, 0x63, 0x15, 0x1e, 0xbe, 0x28, 0x51, 0x21, 0x3f, 0x8b, 0x8e, 0x3b, 0x3f, 0x7c, 0xda, 0xba, 0x3d, 0x87, 0xf5, 0x88, 0xbe, 0xb7, 0x9a, 0xc1, 0xbe, 0x0b, 0xac, 0x11, 0xbf, 0x2b, 0x0c, 0x32, 0x3e, 0x71, 0xdf, 0x99, 0xbe, 0x46, 0x5c, 0x1f, 0xbe, 0x3c, 0xd5, 0xae, 0x3e, 0x2b, 0xd5, 0xe2, 0x3e, 0x55, 0x84, 0x44, 0x3e, 0xd7, 0x4f, 0xbd, 0xbe, 0x5c, 0xa3, 0xc6, 0xbe, 0x68, 0x78, 0xa6, 0xba, 0xa7, 0x11, 0x9c, 0x3e, 0xfd, 0x3b, 0xf6, 0xbd, 0xc3, 0x87, 0x16, 0xbf, 0xf5, 0x75, 0xa1, 0xbe, 0xdf, 0xa4, 0xf2, 0xbc, 0xcf, 0x61, 0x1b, 0x3e, 0x85, 0x57, 0xc9, 0x3d, 0x32, 0x20, 0x25, 0x3c, 0x2d, 0x50, 0xfd, 0x3e, 0x40, 0xe8, 0xd0, 0x3e, 0x7b, 0x69, 0x13, 0x3e, 0x95, 0xa7, 0x25, 0xbe, 0xe1, 0x12, 0xd8, 0xbe, 0x17, 0x53, 0xd1, 0xbc, 0x11, 0xbb, 0x20, 0xbe, 0x33, 0x73, 0x8f, 0xbe, 0xde, 0x70, 0x02, 0x3e, 0xe6, 0x70, 0x8a, 0x3e, 0xd9, 0x12, 0x25, 0x3f, 0x3f, 0x34, 0xe3, 0x3e, 0x68, 0x64, 0x80, 0xbe, 0x1c, 0xea, 0x29, 0xbf, 0xb4, 0x04, 0xa0, 0xbe, 0x5e, 0x4c, 0x0d, 0x3f, 0xd0, 0x4d, 0x1f, 0xbe, 0x8c, 0x81, 0xc3, 0xbe, 0x62, 0xcc, 0xf1, 0x3e, 0x4e, 0xcc, 0xc0, 0x3e, 0xba, 0x58, 0x03, 0xbf, 0xdb, 0x84, 0x89, 0xbf, 0xb5, 0x35, 0xff, 0xbb, 0xe2, 0xf0, 0xab, 0x3f, 0xe4, 0x07, 0x8a, 0x3e, 0x37, 0xe8, 0x24, 0xbf, 0xff, 0x6c, 0x96, 0xbd, 0xba, 0x3e, 0x1b, 0x3f, 0x5c, 0x88, 0x4c, 0x3e, 0x93, 0x7d, 0x86, 0xbf, 0x79, 0xb0, 0x0e, 0xbf, 0x4a, 0x7b, 0xb7, 0x3c, 0x2a, 0x85, 0x53, 0x3e, 0x70, 0x19, 0x84, 0xbe, 0xc7, 0xa1, 0x48, 0xbe, 0x8e, 0x9d, 0x01, 0x3f, 0x78, 0x6c, 0x11, 0x3f, 0x3d, 0x0d, 0x3d, 0xbe, 0x94, 0xdc, 0x5d, 0xbf, 0x44, 0xdf, 0x12, 0x3d, 0xe9, 0xec, 0x7b, 0x3f, 0x7d, 0x43, 0x9a, 0x3e, 0xd5, 0x4b, 0x88, 0xbf, 0xf9, 0x34, 0x88, 0xbf, 0xcc, 0x6b, 0xa8, 0x3e, 0x6e, 0x6a, 0x58, 0x3f, 0xd3, 0xf1, 0xd9, 0x3e, 0x21, 0x75, 0x03, 0x3f, 0xba, 0x4a, 0xa8, 0x3e, 0x5d, 0x80, 0xcc, 0xbe, 0x7c, 0x5f, 0x02, 0xbe, 0x00, 0x2e, 0xaa, 0xbe, 0x46, 0xbd, 0x66, 0xbf, 0x91, 0x46, 0xe8, 0xbd, 0xc7, 0xcb, 0x6a, 0x3f, 0x6b, 0x58, 0x03, 0xbd, 0xe4, 0x8b, 0x17, 0xbe, 0x3e, 0xf8, 0x41, 0x3e, 0x5c, 0x29, 0x4f, 0x3f, 0xc8, 0xc2, 0xd5, 0x3e, 0x1b, 0x4d, 0x8d, 0xbe, 0x01, 0x7f, 0x0d, 0xbf, 0xe3, 0xb8, 0x28, 0xbe, 0x7c, 0xe4, 0x3e, 0xbf, 0xba, 0x78, 0xd0, 0x3e, 0x4a, 0x95, 0xc4, 0x3e, 0xd6, 0x71, 0x71, 0x3e, 0x05, 0x39, 0x6f, 0x3e, 0x91, 0x91, 0x1a, 0x3f, 0x8f, 0x24, 0xd1, 0x3e, 0xbb, 0x2a, 0xa0, 0x3e, 0x2c, 0xb3, 0x5e, 0x3e, 0xc7, 0x32, 0x0c, 0xbd, 0x9b, 0x8a, 0x82, 0x3d, 0x4a, 0x41, 0xd5, 0x3e, 0xfb, 0x00, 0xe7, 0xbc, 0x45, 0x17, 0x98, 0xbf, 0x69, 0x7b, 0x92, 0xbe, 0x45, 0xad, 0x60, 0x3e, 0x44, 0xd8, 0x39, 0x3d, 0x82, 0x67, 0x5a, 0xbe, 0xb1, 0x50, 0x6d, 0xbe, 0x51, 0x01, 0x74, 0xbe, 0xe4, 0x60, 0xe8, 0xbe, 0x29, 0xf5, 0x95, 0xbc, 0xee, 0x1a, 0x24, 0x3e, 0xfa, 0x57, 0xad, 0xbe, 0xbf, 0xaa, 0x11, 0xbe, 0x2c, 0x81, 0xcf, 0xbe, 0x9e, 0xa8, 0x6f, 0xbf, 0x3b, 0x1b, 0xb9, 0x3c, 0x01, 0x1a, 0x28, 0x3f, 0x21, 0x9f, 0x9f, 0x3e, 0xa9, 0x79, 0x17, 0xbf, 0x18, 0xfd, 0xbc, 0xbe, 0x4d, 0x56, 0xe1, 0x3e, 0x25, 0xcd, 0x0b, 0x3f, 0x30, 0xe1, 0xae, 0x3e, 0xa2, 0x86, 0x2e, 0x3f, 0x2a, 0xf1, 0x2d, 0x3f, 0x18, 0x23, 0xbf, 0xbb, 0x81, 0xa8, 0x80, 0x3f, 0xdf, 0x54, 0xfc, 0x3e, 0x56, 0x3c, 0x07, 0xbf, 0x47, 0xbf, 0x02, 0x3f, 0x6f, 0xbc, 0x6c, 0x3f, 0x69, 0x66, 0x12, 0xbf, 0xb0, 0x31, 0x48, 0xbf, 0x4e, 0x91, 0xff, 0x3e, 0xf7, 0x3b, 0x02, 0x3f, 0x4a, 0x27, 0x17, 0xbf, 0x6d, 0x6a, 0x1f, 0xbf, 0xd3, 0x7e, 0xe4, 0xbd, 0xec, 0x71, 0x98, 0xbe, 0x12, 0x56, 0x12, 0x3e, 0x00, 0xe3, 0x03, 0x3f, 0xb6, 0xaf, 0xbd, 0x3e, 0x1c, 0xda, 0x1a, 0xbe, 0x78, 0x9f, 0xf5, 0xbe, 0x93, 0x5b, 0x59, 0xbf, 0x1f, 0xc2, 0xe5, 0xbe, 0xb9, 0x04, 0x80, 0x3d, 0xba, 0x13, 0x1e, 0xbf, 0x30, 0x49, 0xd3, 0xbe, 0xbf, 0x06, 0x8e, 0xbe, 0xda, 0x5f, 0x48, 0xbe, 0x15, 0x00, 0xd8, 0xbe, 0x0c, 0x79, 0x5a, 0xbd, 0x5a, 0xc5, 0x7d, 0x3e, 0x83, 0xdc, 0x8f, 0x3c, 0xed, 0xcb, 0x6c, 0x3e, 0x40, 0xe8, 0xa6, 0x3e, 0x16, 0x49, 0x36, 0xbe, 0x40, 0xe8, 0x5c, 0xbe, 0xab, 0x66, 0x41, 0x3e, 0x76, 0x7d, 0x5b, 0xbe, 0x06, 0x47, 0x60, 0xbe, 0x38, 0xe8, 0xb4, 0xbe, 0xe8, 0x1d, 0xc8, 0x3e, 0x7f, 0xb2, 0x0a, 0x3f, 0xd4, 0x4e, 0x84, 0x3e, 0x66, 0xf8, 0xa5, 0xbd, 0x01, 0xd8, 0x84, 0x3a, 0xb5, 0xe0, 0x1b, 0x3e, 0x9e, 0x25, 0x99, 0x3e, 0x71, 0x47, 0xf1, 0x3d, 0x6d, 0x93, 0x0e, 0xbf, 0x32, 0x9e, 0x75, 0xbf, 0x6e, 0xfc, 0xac, 0xbe, 0x9f, 0x5e, 0xbc, 0xbe, 0x69, 0x59, 0x01, 0xbf, 0x2b, 0x65, 0xca, 0xbe, 0x8a, 0x9c, 0x5c, 0x3e, 0xa5, 0x7e, 0x1e, 0x3f, 0xaa, 0x0f, 0x28, 0x3f, 0xe8, 0xc3, 0x10, 0xbe, 0x63, 0xc6, 0x0a, 0xbf, 0xae, 0xa8, 0x56, 0x3e, 0xb4, 0x3e, 0xf7, 0x3e, 0x6d, 0x21, 0x2e, 0x3f, 0xac, 0xdb, 0x16, 0xbd, 0xaf, 0x8a, 0xb1, 0xbd, 0xcb, 0xa7, 0xc1, 0x3e, 0x4d, 0xb2, 0x6f, 0xbd, 0xda, 0x20, 0x0a, 0xbf, 0xd1, 0x06, 0x17, 0xbe, 0xd2, 0xc0, 0xa5, 0x3e, 0xf6, 0x2b, 0x82, 0x3f, 0xe2, 0xa1, 0x30, 0x3f, 0xd1, 0xc0, 0x9e, 0x3d, 0xaa, 0x7c, 0xf4, 0x3e, 0xbb, 0x21, 0xbd, 0x3e, 0x44, 0x19, 0x93, 0xbe, 0xfe, 0xdd, 0xad, 0xbe, 0x2b, 0x62, 0x8e, 0xbe, 0xc1, 0x68, 0x3c, 0x3d, 0x04, 0x5b, 0x9c, 0x3e, 0x82, 0x91, 0x50, 0xbd, 0x21, 0x24, 0xbb, 0xbe, 0x9a, 0x85, 0xd3, 0x3e, 0x3a, 0x9e, 0x27, 0x3d, 0xcc, 0xd6, 0xde, 0xbe, 0xf1, 0xde, 0xca, 0xbe, 0x07, 0xa1, 0x80, 0x3c, 0x3c, 0x44, 0x85, 0x3d, 0xba, 0x80, 0xcc, 0xbe, 0x3a, 0xe4, 0x9c, 0xbe, 0xea, 0x35, 0xae, 0xbd, 0x84, 0x5d, 0x8a, 0xbe, 0xd1, 0x9d, 0xeb, 0xbd, 0xda, 0xc6, 0x21, 0x3f, 0x9d, 0xe2, 0x86, 0x3f, 0xea, 0x6a, 0xa7, 0xbd, 0x00, 0x71, 0x1a, 0x3e, 0xef, 0x69, 0x22, 0x3d, 0x65, 0xa2, 0xcd, 0x3c, 0xe4, 0x43, 0x9f, 0x3e, 0xa9, 0xe7, 0x32, 0x3f, 0xc6, 0xf2, 0x5a, 0x3e, 0xfd, 0x21, 0x19, 0xbf, 0xd4, 0x0b, 0x58, 0xbf, 0x3f, 0xc7, 0xe7, 0xbd, 0x48, 0xb7, 0x12, 0x3d, 0x92, 0x67, 0x92, 0x3e, 0x1b, 0x4f, 0xa7, 0x3e, 0xde, 0xca, 0x8d, 0xbe, 0xd1, 0xc9, 0x93, 0xbc, 0x03, 0xeb, 0x1c, 0x3d, 0x16, 0xc1, 0x8b, 0xbe, 0x54, 0x38, 0x81, 0xbe, 0x4d, 0xfc, 0xf1, 0xbe, 0x09, 0xb4, 0xbb, 0xbd, 0xa8, 0x59, 0x4e, 0x3e, 0xff, 0xa9, 0xb5, 0xbd, 0xc3, 0x6b, 0x95, 0x3e, 0x7b, 0x0e, 0xf4, 0x3e, 0xbb, 0x79, 0x8d, 0x3e, 0x1d, 0x83, 0xf9, 0x3e, 0xaf, 0x9e, 0x35, 0xbe, 0xdb, 0x4d, 0x4e, 0x3d, 0xfc, 0x53, 0x9b, 0xbe, 0x4a, 0xfa, 0x92, 0xbe, 0x48, 0xe4, 0x0b, 0xbf, 0x16, 0xc8, 0xc7, 0xbe, 0x09, 0x9f, 0x94, 0xbe, 0xc4, 0x4e, 0xf1, 0x3c, 0x2d, 0xfa, 0x04, 0x3f, 0xc1, 0xaa, 0xaa, 0x3f, 0x31, 0x0f, 0x6d, 0x3f, 0x0f, 0x3f, 0x71, 0xbe, 0x1b, 0x2d, 0x8b, 0xbd, 0x8b, 0xd3, 0xc1, 0xbe, 0xb3, 0xc0, 0x5d, 0xbe, 0x05, 0xe3, 0x14, 0x3e, 0x64, 0x0e, 0x12, 0x3f, 0x15, 0xa4, 0x01, 0x3f, 0x35, 0x0e, 0x74, 0x3f, 0x92, 0x09, 0x40, 0x3f, 0x8e, 0xd9, 0xd6, 0x3c, 0x17, 0x75, 0x08, 0xbd, 0xf9, 0x9b, 0x3c, 0x3e, 0xfc, 0x59, 0xad, 0x3e, 0x75, 0x8a, 0x34, 0xbf, 0x98, 0x60, 0x05, 0xbf, 0x9c, 0x81, 0x38, 0x3e, 0xe1, 0x51, 0xef, 0x3c, 0x6d, 0x45, 0x51, 0xbf, 0xe6, 0xb2, 0x02, 0x3e, 0x0a, 0x9f, 0x05, 0x3f, 0xb1, 0x49, 0xa4, 0x3e, 0x1a, 0xf6, 0xa1, 0x3e, 0x78, 0x3d, 0xa7, 0xbe, 0xc5, 0x0d, 0xf9, 0xbe, 0x13, 0x88, 0x3a, 0xbe, 0x99, 0x8d, 0x9b, 0xbe, 0x16, 0x01, 0x1b, 0xbe, 0x4c, 0x39, 0xa0, 0x3d, 0x9b, 0x6b, 0x1c, 0x3f, 0xc0, 0x4a, 0xcd, 0x3e, 0x8e, 0x74, 0xbe, 0x3e, 0xd9, 0x83, 0x18, 0x3e, 0xa6, 0x3f, 0x48, 0xbe, 0xe3, 0x18, 0x21, 0xbf, 0xf1, 0xb3, 0x03, 0xbf, 0xf7, 0x21, 0xf2, 0xbe, 0xe0, 0x3e, 0x1b, 0xbf, 0xaf, 0x2f, 0x8a, 0xbe, 0x7d, 0x21, 0x1f, 0xbe, 0x80, 0x33, 0xb7, 0x3d, 0xeb, 0x04, 0x07, 0x3e, 0x39, 0xe8, 0x88, 0x3e, 0xbc, 0xe5, 0x24, 0x3d, 0xae, 0x6e, 0xd7, 0x3b, 0x14, 0x4c, 0x87, 0xbe, 0x75, 0xfd, 0xd8, 0xbc, 0x5d, 0xe4, 0x93, 0xbe, 0x90, 0xa0, 0x39, 0xbe, 0x5d, 0x06, 0x15, 0x3f, 0x14, 0x5a, 0xa3, 0x3e, 0x39, 0x06, 0xe4, 0x3d, 0x0f, 0x72, 0x89, 0x3f, 0x35, 0x81, 0x16, 0x3f, 0xd1, 0x20, 0xa0, 0xbe, 0x80, 0x25, 0x61, 0x3e, 0x0d, 0x57, 0x97, 0x3e, 0xc3, 0x34, 0x54, 0xbf, 0x6b, 0xf8, 0x69, 0xbf, 0xae, 0xc9, 0xf8, 0xbe, 0xeb, 0x18, 0xe4, 0x3e, 0x5c, 0xc6, 0x15, 0x3f, 0xa7, 0xfd, 0x1a, 0x3f, 0xff, 0xf3, 0x83, 0x3d, 0x8c, 0x85, 0x57, 0xbe, 0xe5, 0xc6, 0x8a, 0x3d, 0xc4, 0xf8, 0x8e, 0xbd, 0x66, 0xa7, 0xd1, 0xbe, 0x46, 0x15, 0x47, 0xbf, 0x85, 0xe8, 0x95, 0xbb, 0x42, 0xe1, 0x9d, 0x3e, 0x7d, 0x49, 0x7e, 0x3e, 0xfb, 0x30, 0xe8, 0x3e, 0x30, 0xb5, 0xea, 0x3e, 0xb1, 0xed, 0x29, 0xbe, 0x46, 0xf1, 0x18, 0xbe, 0x69, 0x01, 0x4b, 0x3c, 0xbc, 0xfd, 0x0f, 0xbf, 0xec, 0x25, 0x0c, 0xbf, 0x75, 0x3c, 0x0c, 0xbf, 0x06, 0xd6, 0x4e, 0xbe, 0x2f, 0x9c, 0xe1, 0xbe, 0xcc, 0x19, 0x99, 0xbe, 0x23, 0x30, 0xb8, 0x3d, 0x2d, 0x7f, 0xd8, 0xbd, 0x66, 0xdf, 0xdd, 0x3e, 0x4d, 0xcd, 0xb5, 0x3e, 0x24, 0x20, 0xb0, 0xbe, 0x30, 0xf7, 0x42, 0xbf, 0x7f, 0x2b, 0xc8, 0xbe, 0xbc, 0xa4, 0x20, 0x3f, 0xb4, 0xdc, 0x14, 0xbf, 0xae, 0xf8, 0x2b, 0xbf, 0x4e, 0xb5, 0xf7, 0xbe, 0x27, 0xe6, 0x56, 0xbf, 0x7c, 0x7c, 0x6a, 0xbf, 0x02, 0x96, 0x06, 0xbf, 0xa1, 0x49, 0x70, 0xbe, 0x04, 0xc6, 0x9b, 0x3d, 0x1d, 0x15, 0xd8, 0xbe, 0xc3, 0x49, 0xeb, 0xbe, 0x45, 0x19, 0xda, 0xbd, 0xf5, 0x2d, 0x35, 0x3d, 0xcb, 0xe9, 0xf7, 0xbe, 0x72, 0x28, 0x41, 0xbf, 0xb2, 0x3e, 0x44, 0xbf, 0x55, 0xa0, 0x45, 0xbf, 0x84, 0x2b, 0xfb, 0xbe, 0x3e, 0x0f, 0x23, 0xbf, 0xfd, 0x8c, 0x70, 0xbd, 0x41, 0x6c, 0xaa, 0xbe, 0x65, 0x55, 0xab, 0xbe, 0x8a, 0xfe, 0x28, 0xbf, 0x7d, 0x54, 0xc9, 0xbd, 0xb5, 0x4c, 0xcc, 0x3e, 0xd8, 0x7f, 0xa5, 0x3d, 0xeb, 0xea, 0x83, 0xbd, 0xdf, 0xd6, 0xad, 0xbe, 0xfe, 0x66, 0x7a, 0xbf, 0xd4, 0x3f, 0xe4, 0xbe, 0xb2, 0x98, 0xd5, 0xbd, 0xa9, 0xfa, 0xa3, 0xbe, 0xb2, 0xd1, 0x21, 0xbf, 0x86, 0x46, 0x5a, 0xbf, 0xa0, 0x69, 0x30, 0xbe, 0xee, 0xdb, 0x91, 0x3c, 0xb0, 0x7c, 0x00, 0xbe, 0x2a, 0x2f, 0xfd, 0xbe, 0x49, 0xfd, 0xd1, 0xbd, 0xda, 0xff, 0xdb, 0x3c, 0x9d, 0xee, 0xb3, 0x3e, 0x0d, 0x67, 0xa0, 0x3e, 0x85, 0x02, 0xdc, 0xbd, 0xb6, 0x2e, 0x6f, 0xbe, 0xbc, 0x7a, 0x94, 0x3d, 0x8f, 0xe9, 0xb2, 0x3e, 0x81, 0x6f, 0x94, 0x3f, 0xd2, 0x82, 0x68, 0x3e, 0xd2, 0x25, 0x54, 0xbf, 0x21, 0x88, 0x3a, 0xbf, 0xd1, 0x3c, 0x43, 0xbf, 0x36, 0xbc, 0xbb, 0x3d, 0x17, 0xf6, 0xd7, 0x3e, 0x7d, 0x68, 0x05, 0x3e, 0x03, 0xbe, 0x2c, 0x3c, 0xbf, 0x57, 0x15, 0xbe, 0x31, 0x63, 0xff, 0xbe, 0x82, 0x19, 0xc4, 0xbe, 0x2c, 0x78, 0x0e, 0x3e, 0x20, 0xd0, 0x04, 0x3e, 0xc0, 0x4c, 0xe1, 0xbe, 0x76, 0xe9, 0x18, 0xbf, 0x1a, 0x09, 0xef, 0xbe, 0x86, 0x55, 0x63, 0x3d, 0x6d, 0xab, 0x33, 0xbc, 0x01, 0xb1, 0x0f, 0xbe, 0x45, 0xec, 0xa3, 0xbd, 0x71, 0x31, 0xca, 0x3e, 0xc6, 0x7d, 0x54, 0x3f, 0x0e, 0xb9, 0x7a, 0x3e, 0x1b, 0xd1, 0x11, 0xbe, 0x01, 0x3e, 0xc4, 0xbe, 0x5e, 0x2b, 0x69, 0xbe, 0xc8, 0x56, 0x04, 0x3f, 0xef, 0x48, 0x0f, 0x3f, 0x94, 0xf9, 0xcf, 0x3d, 0x00, 0xe1, 0xa8, 0xbe, 0xcf, 0xbc, 0x5d, 0xbe, 0x11, 0x84, 0xa1, 0x3e, 0xfc, 0xf2, 0x06, 0xbe, 0x5b, 0x13, 0x89, 0xbd, 0x61, 0x01, 0xe3, 0xbe, 0x43, 0xa4, 0xb6, 0xbe, 0x24, 0x51, 0x04, 0x3e, 0x78, 0xfb, 0x71, 0xbe, 0x36, 0x3f, 0x1d, 0xbe, 0x41, 0xe4, 0x0e, 0xbd, 0xbe, 0xcc, 0x50, 0xbd, 0xc7, 0xdd, 0x20, 0x3f, 0x53, 0xda, 0xd6, 0x3e, 0xd6, 0x37, 0x8d, 0x3e, 0x97, 0x7e, 0x82, 0x3e, 0x39, 0x60, 0x6c, 0x3e, 0xe0, 0x59, 0x8b, 0x3e, 0x67, 0x9c, 0xd6, 0xbe, 0x61, 0x37, 0x38, 0xbc, 0x62, 0x7e, 0xbf, 0x3e, 0xbe, 0x5c, 0x08, 0x3f, 0xbf, 0x58, 0x2d, 0x3f, 0x72, 0xaf, 0x8d, 0x3e, 0xc1, 0xc2, 0xf2, 0xbd, 0x41, 0x78, 0xdc, 0x3e, 0xe2, 0x38, 0x32, 0x3f, 0x1b, 0x35, 0x28, 0x3d, 0x30, 0x3e, 0x93, 0x3d, 0xce, 0xce, 0x31, 0xbe, 0x49, 0x2c, 0x1f, 0x3f, 0xef, 0x49, 0xf1, 0x3e, 0x72, 0x21, 0xfe, 0xbc, 0xa6, 0xd5, 0x51, 0xbe, 0x1d, 0x25, 0x25, 0x3e, 0x86, 0x60, 0x1b, 0x3d, 0x39, 0xb2, 0x64, 0x3e, 0x45, 0x14, 0xea, 0x3d, 0xa7, 0x2b, 0xa3, 0x3e, 0xa5, 0xc1, 0x4a, 0x3f, 0xec, 0xc9, 0xc5, 0x3e, 0xd5, 0xd9, 0x8d, 0x3e, 0x39, 0xb1, 0xfb, 0x3e, 0x5d, 0x5b, 0x43, 0x3f, 0x2c, 0x3f, 0xc5, 0x3e, 0xf6, 0xd7, 0xd2, 0x3e, 0xcd, 0xb0, 0x95, 0x3e, 0x8a, 0x81, 0xe3, 0x3e, 0x04, 0xa4, 0x94, 0x3e, 0x3f, 0xf0, 0x1e, 0x3f, 0x1f, 0x69, 0xd0, 0x3e, 0x4a, 0x93, 0x80, 0xbe, 0x61, 0x61, 0xff, 0x3e, 0xd9, 0xfb, 0x0e, 0xbf, 0x3d, 0x1b, 0x34, 0xbf, 0x68, 0x0b, 0x23, 0x3e, 0xe9, 0xc7, 0xe0, 0xbd, 0x01, 0x38, 0xe9, 0xbc, 0xbd, 0xdd, 0x02, 0xbb, 0xec, 0x23, 0xb6, 0x3e, 0xa8, 0x9e, 0xbc, 0xbd, 0x90, 0xd9, 0xd4, 0xbe, 0x70, 0xaf, 0x16, 0x3f, 0x13, 0x23, 0xac, 0x3f, 0x8a, 0x97, 0x1a, 0x3f, 0xb0, 0x69, 0xa2, 0xbe, 0xd9, 0x04, 0xf3, 0xbe, 0x0b, 0xee, 0xfb, 0xbe, 0x53, 0x6d, 0x1a, 0xbd, 0xfd, 0x06, 0x44, 0x3f, 0x90, 0x3f, 0x0a, 0x3f, 0x8e, 0x29, 0x62, 0xbe, 0xc0, 0x83, 0x89, 0xbe, 0x15, 0x3d, 0x96, 0x3e, 0x81, 0xad, 0x97, 0x3d, 0xb7, 0xdb, 0x38, 0x3e, 0x4f, 0x14, 0x4f, 0x3e, 0x7b, 0x57, 0x87, 0x3e, 0x58, 0x2a, 0x96, 0xbe, 0x91, 0x5a, 0x1c, 0xbf, 0x51, 0x47, 0x6a, 0xbe, 0x56, 0x89, 0xdb, 0x3e, 0x47, 0x60, 0x10, 0x3f, 0x83, 0x96, 0xb0, 0x3e, 0x35, 0x3f, 0x08, 0x3f, 0x96, 0xa0, 0x9e, 0x3e, 0x97, 0x65, 0xd0, 0x3d, 0xe8, 0xfd, 0xad, 0x39, 0xf9, 0x0e, 0xe2, 0x3e, 0x0b, 0x1a, 0xdf, 0x3e, 0x8b, 0xc7, 0x4c, 0x3f, 0xce, 0xbc, 0x41, 0x3f, 0xc9, 0xa3, 0x8c, 0x3e, 0x04, 0xd9, 0x74, 0xbd, 0xf0, 0xe1, 0xb8, 0xbd, 0x6b, 0xef, 0x30, 0x3e, 0x7b, 0x1a, 0x45, 0xbf, 0x83, 0x42, 0x61, 0xbf, 0x42, 0xa1, 0x81, 0xbe, 0x6d, 0x15, 0xd9, 0x3e, 0x31, 0x25, 0x08, 0x3f, 0xf7, 0x40, 0x61, 0xbd, 0xfb, 0x1a, 0x10, 0x3f, 0xaa, 0x6e, 0x2e, 0x3f, 0x34, 0xee, 0xb3, 0x3d, 0x3a, 0xf8, 0x8c, 0x3e, 0xfd, 0x02, 0x36, 0x3f, 0xc7, 0xce, 0x50, 0x3f, 0xa0, 0x8d, 0x61, 0x3e, 0x00, 0xc6, 0x87, 0xbe, 0xeb, 0x3f, 0x42, 0xbe, 0x50, 0xde, 0xe3, 0xbe, 0x28, 0xb0, 0x59, 0xbe, 0x3c, 0x18, 0x73, 0x3e, 0x1d, 0x0b, 0x66, 0xbe, 0x4b, 0x8c, 0x16, 0xbd, 0xbd, 0xb5, 0xa3, 0x3d, 0x84, 0xa0, 0x4c, 0x3e, 0x93, 0x4c, 0xa5, 0x3e, 0xd3, 0x35, 0xf7, 0xbd, 0x36, 0x1f, 0x94, 0x3e, 0x15, 0xb1, 0xc4, 0x3f, 0xd4, 0xed, 0xab, 0x3f, 0xcd, 0xd6, 0xc0, 0xbe, 0xe8, 0x0a, 0xd3, 0xbe, 0x7c, 0xe4, 0x24, 0x3e, 0x29, 0xe6, 0xae, 0x3e, 0xc0, 0xc3, 0x08, 0xbd, 0x23, 0x13, 0x02, 0x3f, 0x13, 0xfe, 0x03, 0x3f, 0xc5, 0xc6, 0x5a, 0x3f, 0x7d, 0x23, 0xf1, 0x3e, 0xf5, 0xc1, 0x04, 0xbe, 0xa8, 0x60, 0x22, 0xbe, 0x1e, 0x1b, 0x3b, 0xbe, 0x1b, 0x47, 0xe2, 0xbe, 0x08, 0x77, 0x20, 0x3e, 0x34, 0x59, 0x36, 0x3f, 0xa9, 0x1a, 0xb9, 0x3e, 0x56, 0xb3, 0x35, 0x3d, 0x74, 0xc2, 0x2c, 0x3f, 0xce, 0x88, 0x92, 0xbe, 0xa4, 0xe0, 0x1e, 0xbf, 0xf5, 0xb4, 0x80, 0xbe, 0x25, 0x5c, 0xb8, 0x3d, 0xd7, 0xe0, 0x83, 0x3e, 0x53, 0xcb, 0x1d, 0x3f, 0xe3, 0x46, 0x1f, 0x3f, 0x12, 0xe5, 0x52, 0x3f, 0x2a, 0xcf, 0x7e, 0x3f, 0xc3, 0x93, 0x2e, 0x3f, 0x7c, 0x50, 0xf7, 0xbe, 0x05, 0xb3, 0xca, 0xbe, 0x4f, 0xab, 0x69, 0xbe, 0xe4, 0x88, 0xbc, 0x3e, 0xe5, 0x19, 0x06, 0x3f, 0x86, 0x67, 0xd6, 0xbc, 0xe5, 0x91, 0xef, 0xbe, 0xec, 0x22, 0x5f, 0x3d, 0x63, 0x4e, 0xf2, 0x3e, 0xb0, 0x2d, 0x70, 0xbe, 0x40, 0x4f, 0x83, 0xbe, 0xbc, 0x64, 0x31, 0x3e, 0x95, 0x03, 0x1b, 0x3f, 0xbb, 0x22, 0xd2, 0xbd, 0xb1, 0xa5, 0xf2, 0x3e, 0x95, 0x59, 0x22, 0x3f, 0x4a, 0x25, 0xcf, 0xbd, 0x87, 0x6e, 0x9d, 0xbe, 0x0c, 0x10, 0x06, 0xbe, 0x40, 0x9f, 0x6a, 0xbe, 0x64, 0x2c, 0x97, 0xbc, 0xdb, 0x67, 0x38, 0x3e, 0x75, 0x02, 0x37, 0x3f, 0xf1, 0x31, 0x80, 0xbd, 0x44, 0x92, 0xdb, 0xbe, 0x36, 0x8b, 0xf4, 0xbe, 0x27, 0x36, 0x05, 0xbf, 0x92, 0x2a, 0x26, 0xbe, 0x71, 0xd4, 0x76, 0x3e, 0x74, 0x1c, 0x06, 0x3f, 0x82, 0x72, 0x57, 0xbc, 0x38, 0x3a, 0xb5, 0x3e, 0x2e, 0xb4, 0x2b, 0x3e, 0x2a, 0xf3, 0x85, 0xbe, 0x47, 0xa5, 0x78, 0x3e, 0x1b, 0x7d, 0x04, 0xbd, 0xb9, 0x5d, 0xf9, 0xbe, 0x19, 0x0b, 0x32, 0xbe, 0x4d, 0x44, 0xaf, 0xbe, 0x06, 0xad, 0xb2, 0x3d, 0xc8, 0xde, 0x33, 0x3d, 0x95, 0xdc, 0xe2, 0xbe, 0xad, 0x7a, 0xbb, 0x3e, 0x68, 0xa3, 0x58, 0x3c, 0xb2, 0x3c, 0xd4, 0xbe, 0xd8, 0xf8, 0x12, 0x3e, 0x05, 0x0b, 0x5d, 0x3e, 0x32, 0xbd, 0xef, 0xbe, 0x2c, 0x71, 0xfe, 0xbd, 0xbc, 0x1a, 0x90, 0xbe, 0x84, 0x61, 0x84, 0x3e, 0xb7, 0xca, 0xb3, 0x3d, 0xb2, 0x1a, 0x89, 0xbd, 0xa6, 0xc0, 0x89, 0x3e, 0xdc, 0x66, 0x03, 0xbf, 0xb5, 0x67, 0x0f, 0x3f, 0x3b, 0x26, 0x0d, 0x3f, 0x03, 0xc1, 0x4e, 0x3e, 0x1a, 0x17, 0x14, 0x3d, 0x36, 0x7e, 0xf6, 0xbe, 0x10, 0xcf, 0xfa, 0xbe, 0xd4, 0x2c, 0x19, 0xbe, 0x3e, 0xcb, 0xd7, 0xbe, 0xe9, 0xfc, 0x16, 0xbf, 0x6b, 0x44, 0xe2, 0xbc, 0x8e, 0xaa, 0x2a, 0x3d, 0x35, 0x67, 0x3b, 0xbf, 0x41, 0xb1, 0xaf, 0xbe, 0x71, 0x2b, 0xb7, 0xbc, 0x9b, 0x11, 0x7f, 0x3d, 0x67, 0x29, 0x1b, 0x3f, 0xb1, 0x68, 0x58, 0x3e, 0x97, 0x14, 0xad, 0x3e, 0xfc, 0xad, 0xde, 0x3e, 0xd7, 0x66, 0x1a, 0x3f, 0xf7, 0x36, 0xc7, 0x3e, 0x63, 0x4f, 0x08, 0xbe, 0x0f, 0x1e, 0xbc, 0xbc, 0x8a, 0xfb, 0xee, 0x3d, 0xb6, 0x2c, 0xaa, 0xbe, 0xf1, 0x49, 0xb5, 0xbe, 0xfa, 0xe8, 0x2e, 0xbf, 0xcd, 0x0c, 0xe9, 0xbe, 0x1f, 0xe5, 0xed, 0xbe, 0x63, 0xea, 0x17, 0x3e, 0x2b, 0x5d, 0x34, 0xbe, 0xeb, 0xa9, 0xfb, 0xbe, 0x4a, 0x46, 0x0e, 0xbf, 0xc9, 0xec, 0xca, 0x3e, 0x58, 0xf9, 0x0c, 0x3f, 0xb8, 0xba, 0x04, 0x3e, 0x3d, 0x3d, 0x84, 0x3e, 0x35, 0xa1, 0xdc, 0x3e, 0x04, 0x81, 0xee, 0xbd, 0x6b, 0xa7, 0x26, 0x3e, 0xc8, 0x92, 0x85, 0x3d, 0xc1, 0x26, 0x26, 0x3e, 0x29, 0xdf, 0x0e, 0x3f, 0xce, 0x3f, 0x2f, 0x3e, 0x29, 0x97, 0xc9, 0xbd, 0xf9, 0x8e, 0x83, 0xbe, 0xec, 0x54, 0xa0, 0xbd, 0x81, 0xc5, 0xc6, 0xbe, 0xa4, 0xc5, 0x3b, 0xbf, 0xa5, 0x72, 0xa2, 0x3e, 0x43, 0x33, 0x29, 0x3f, 0xf2, 0x29, 0x58, 0x3e, 0x2c, 0xe2, 0x98, 0x3e, 0xa2, 0xa1, 0x9f, 0xbe, 0x0d, 0x97, 0x3d, 0xbe, 0x0f, 0xea, 0x87, 0xbc, 0xf3, 0xd3, 0x2b, 0x3d, 0x27, 0x52, 0x1b, 0x3e, 0xa3, 0xdb, 0xe3, 0x3c, 0xf9, 0x74, 0x43, 0x3d, 0x7c, 0x44, 0xc7, 0x3d, 0x96, 0xe2, 0x8f, 0x3d, 0xde, 0x7e, 0xa3, 0x3e, 0xad, 0x77, 0x34, 0x3e, 0xf6, 0x03, 0x10, 0x3f, 0x8d, 0x11, 0x86, 0x3e, 0xc6, 0x6b, 0x2c, 0xbf, 0xf3, 0xc0, 0xd0, 0xbd, 0x5f, 0xbb, 0x71, 0xbd, 0xc4, 0x70, 0x6c, 0x3e, 0xce, 0xe6, 0x80, 0x3e, 0xf2, 0x9a, 0xa7, 0xbe, 0x62, 0xc1, 0x9f, 0xbe, 0xc1, 0xed, 0x80, 0xbe, 0x61, 0x17, 0x85, 0xbe, 0x56, 0x3c, 0x81, 0x3e, 0x3e, 0x10, 0xaa, 0xbe, 0x79, 0x3b, 0xa0, 0xbf, 0x8e, 0x4d, 0xcd, 0x3d, 0xd7, 0x22, 0xc8, 0x3e, 0x2b, 0x7a, 0x61, 0x3e, 0xbb, 0xa5, 0x59, 0x3f, 0x34, 0x77, 0x25, 0x3f, 0x34, 0xed, 0xe2, 0x3d, 0xb9, 0x94, 0x18, 0x3e, 0x29, 0x7f, 0xa9, 0x3e, 0x53, 0x86, 0x8f, 0x3e, 0x06, 0x5c, 0xb9, 0x3b, 0x3a, 0x39, 0xb9, 0xbe, 0xa5, 0xb1, 0x5e, 0xbf, 0x07, 0x9a, 0xbe, 0x3b, 0xf3, 0x7f, 0x07, 0xbf, 0x69, 0x91, 0x8c, 0xbd, 0x5a, 0x7c, 0xc7, 0x3d, 0x68, 0x40, 0x24, 0xbf, 0x53, 0xbd, 0xcb, 0x3e, 0x8e, 0xbf, 0xeb, 0x3d, 0xfb, 0xbf, 0x04, 0x3f, 0x92, 0x3d, 0xfb, 0x3e, 0x07, 0xa5, 0x4c, 0x3f, 0xe0, 0x88, 0xcd, 0x3e, 0xd7, 0x8f, 0x0d, 0x3f, 0xac, 0x7a, 0x6c, 0xbe, 0xb0, 0xb2, 0x2b, 0x3f, 0xa3, 0xd0, 0xca, 0x3e, 0x6f, 0x8d, 0x26, 0x3e, 0xc5, 0x04, 0x30, 0x3e, 0x7d, 0xc2, 0x51, 0x3e, 0xc4, 0x3e, 0x15, 0xbd, 0x1f, 0x54, 0xa2, 0xbe, 0x68, 0x8c, 0xf3, 0xbe, 0xfd, 0x3b, 0xab, 0x3d, 0x9e, 0x06, 0x36, 0x3d, 0x20, 0xb9, 0x71, 0xbe, 0x17, 0xc4, 0x7e, 0x3e, 0xdb, 0x36, 0x81, 0xbe, 0xba, 0xf7, 0x98, 0x3c, 0x91, 0xb2, 0xf5, 0x3e, 0xc4, 0xcf, 0xa4, 0x3e, 0x1d, 0x41, 0x9e, 0xbd, 0xf7, 0xc1, 0xc4, 0x3c, 0x50, 0x2b, 0xc5, 0x3e, 0xa9, 0x09, 0x99, 0xbe, 0x9f, 0xff, 0xab, 0xbd, 0x49, 0xb1, 0x68, 0xbe, 0xb9, 0x8e, 0x11, 0xbf, 0x70, 0x43, 0x8b, 0xbe, 0x19, 0x22, 0xfa, 0xbe, 0x23, 0xd5, 0x8b, 0xbe, 0x1b, 0x3c, 0x60, 0xbd, 0x3c, 0xc0, 0x00, 0xbf, 0x82, 0x31, 0x30, 0xbc, 0xe5, 0xef, 0xdd, 0x3d, 0x16, 0xcd, 0xe2, 0x3d, 0xfd, 0xe3, 0x24, 0x3f, 0xff, 0x21, 0x8e, 0x3f, 0xe4, 0x91, 0x26, 0x3f, 0xda, 0x0b, 0x1b, 0x3f, 0xcc, 0x0f, 0x8a, 0x3d, 0x50, 0xa5, 0x25, 0xbe, 0xa4, 0x02, 0x30, 0x3f, 0x74, 0xa9, 0x44, 0x3e, 0x95, 0x67, 0xa6, 0x3e, 0x8c, 0x28, 0x1e, 0x3e, 0xf7, 0xdc, 0x3a, 0x3e, 0x9e, 0x25, 0xe7, 0xbc, 0xc5, 0x8f, 0x0f, 0x3f, 0x29, 0x89, 0x1d, 0x3f, 0x7d, 0x44, 0x0b, 0xbf, 0xf1, 0x8f, 0x0b, 0xbf, 0x44, 0x16, 0xc5, 0xbe, 0x2d, 0x9c, 0x78, 0xbe, 0xa6, 0x5d, 0xda, 0x3c, 0x74, 0xa6, 0x8e, 0x3e, 0xda, 0x55, 0xa5, 0x3d, 0xb2, 0xa3, 0x1f, 0xbd, 0x81, 0x1f, 0x9d, 0xbe, 0xce, 0x42, 0x60, 0xbf, 0xcc, 0xf8, 0x54, 0xbf, 0xd4, 0x99, 0x1d, 0xbf, 0x72, 0x5b, 0xc4, 0xbe, 0x5b, 0x40, 0x0c, 0xbf, 0xe4, 0xb0, 0x98, 0x3d, 0xbf, 0x42, 0xa9, 0xbe, 0x25, 0xb3, 0x99, 0xbe, 0x8e, 0xc9, 0x68, 0xbe, 0x38, 0xcf, 0xe9, 0xbe, 0x5b, 0x30, 0x7d, 0xbe, 0x72, 0x99, 0x91, 0x3e, 0x1c, 0x0f, 0xd2, 0x3e, 0x16, 0xd4, 0xa9, 0xbd, 0x70, 0xc9, 0x08, 0xbf, 0xb2, 0xed, 0x03, 0xbf, 0x1c, 0x50, 0xbb, 0xbe, 0xc6, 0xce, 0x93, 0x3d, 0x1e, 0xc1, 0xb0, 0xbe, 0x72, 0x86, 0x6c, 0xbd, 0x82, 0x35, 0xcb, 0x3e, 0x18, 0xdb, 0xff, 0x3d, 0xab, 0xfe, 0x19, 0x3e, 0xd8, 0x9f, 0x8d, 0x3d, 0x75, 0x2a, 0xa6, 0x3e, 0xff, 0xc9, 0xb1, 0x3d, 0x30, 0x68, 0x8f, 0xbe, 0x87, 0x89, 0xbd, 0xbe, 0xa8, 0xef, 0x2e, 0xbf, 0x7a, 0x9b, 0x91, 0xbf, 0x3b, 0xcf, 0x33, 0xbf, 0xd4, 0x63, 0xec, 0xbe, 0xf7, 0xc3, 0xc4, 0xbe, 0xc0, 0xf0, 0x98, 0x3e, 0x01, 0x03, 0xf4, 0x3d, 0x98, 0x8b, 0x90, 0xbc, 0x89, 0x97, 0x70, 0xbd, 0xb5, 0x6c, 0x6c, 0x3e, 0xe5, 0x79, 0x83, 0x3f, 0xdc, 0x5e, 0x54, 0x3f, 0x2c, 0x20, 0x8c, 0xbc, 0xf1, 0x87, 0x0f, 0xbe, 0x79, 0x70, 0x8c, 0x3b, 0x48, 0x16, 0xb8, 0xbd, 0xc1, 0x4e, 0x58, 0x3e, 0xd9, 0x5a, 0xa4, 0xbe, 0x86, 0xad, 0x1f, 0xbf, 0x87, 0x80, 0x4d, 0xbf, 0x84, 0xc7, 0x34, 0xbf, 0xc7, 0x03, 0x54, 0xbf, 0x99, 0xe1, 0xb4, 0xbe, 0xb0, 0x13, 0x1a, 0x3f, 0x44, 0x42, 0x08, 0x3f, 0xfd, 0x93, 0xc8, 0x3e, 0x7c, 0x6e, 0x16, 0x3f, 0xab, 0xda, 0x38, 0x3f, 0x3a, 0xe3, 0x4e, 0x3e, 0x11, 0x72, 0x95, 0xbd, 0x1d, 0x97, 0x88, 0xbc, 0x00, 0x7f, 0x54, 0xbc, 0x2b, 0x65, 0x2b, 0xbe, 0x0c, 0xba, 0x0b, 0xbe, 0x63, 0x87, 0x03, 0x3e, 0xcc, 0x2c, 0xa4, 0xbe, 0x6d, 0x2f, 0x93, 0x3d, 0xa0, 0x1e, 0x7c, 0xbd, 0xac, 0x87, 0xd1, 0x3e, 0xdf, 0x24, 0x16, 0xbe, 0x44, 0xff, 0xe5, 0xbe, 0x89, 0x73, 0xe3, 0xbe, 0x4b, 0x81, 0x21, 0xbf, 0x1e, 0x41, 0x60, 0xbd, 0x4c, 0x43, 0x82, 0x3e, 0xe0, 0x9e, 0xff, 0xbd, 0x55, 0x9d, 0x7b, 0x3f, 0x3b, 0x0a, 0x83, 0xbe, 0xaa, 0x37, 0x0f, 0xbf, 0x9e, 0x48, 0xc8, 0x3e, 0xa4, 0x41, 0x24, 0x3f, 0xe0, 0x40, 0x51, 0x3c, 0x58, 0x69, 0x4f, 0xbd, 0x93, 0x5b, 0xba, 0xbd, 0xce, 0x95, 0xc3, 0xbd, 0xe3, 0xba, 0x2b, 0xbe, 0x64, 0x4d, 0x00, 0xbf, 0x19, 0x3a, 0x52, 0xbd, 0xe7, 0x3d, 0x17, 0x3f, 0xbc, 0xa8, 0xb5, 0x3e, 0x19, 0x05, 0x95, 0x3e, 0xfc, 0xeb, 0x97, 0xbe, 0xc4, 0xb6, 0x4c, 0x3e, 0xa5, 0xaa, 0xff, 0x3c, 0x7b, 0x1a, 0x06, 0x3e, 0x19, 0x20, 0xd2, 0x3d, 0x59, 0x17, 0xa3, 0x3e, 0x94, 0x28, 0x4d, 0x3f, 0xd3, 0x7a, 0xf0, 0x3e, 0xf9, 0xed, 0x2a, 0x3e, 0x4b, 0xfd, 0xd6, 0xbe, 0x43, 0x87, 0x1c, 0xbe, 0x3c, 0xf6, 0x5b, 0x3d, 0xda, 0x73, 0x3a, 0xbe, 0x10, 0xde, 0xc9, 0xbe, 0x86, 0x3f, 0xfd, 0x3d, 0xb4, 0xb2, 0xe8, 0xbd, 0x3f, 0x53, 0x04, 0xbe, 0x3b, 0x6b, 0xcf, 0x3e, 0xdb, 0x94, 0x88, 0x3f, 0xed, 0xc8, 0xfc, 0x3e, 0x20, 0xd1, 0xab, 0x3e, 0x7f, 0x37, 0x10, 0x3f, 0x25, 0x64, 0x48, 0x3f, 0xa3, 0x82, 0xe9, 0x3e, 0x3a, 0x62, 0x03, 0xbe, 0x16, 0x79, 0xee, 0xbe, 0xf6, 0xec, 0x27, 0x3e, 0x26, 0xea, 0x0f, 0xbd, 0x9e, 0xf4, 0x7f, 0xbe, 0x3f, 0x46, 0x14, 0xbd, 0x50, 0x04, 0x91, 0x3d, 0xd7, 0x04, 0xcb, 0xbe, 0xbe, 0xcb, 0x2a, 0x3f, 0xa4, 0x73, 0xab, 0x3f, 0x7f, 0x0f, 0x12, 0x3f, 0x1c, 0xea, 0x06, 0xbf, 0xaf, 0xd9, 0x25, 0xbd, 0x61, 0xe5, 0x4f, 0x3f, 0x1c, 0x8e, 0x7f, 0x3e, 0xf8, 0x0f, 0xb0, 0x3d, 0x3a, 0x2a, 0x0b, 0x3f, 0x10, 0xae, 0x2d, 0xbe, 0xea, 0xb1, 0xd9, 0xbe, 0xcd, 0xf2, 0xfd, 0xbe, 0x90, 0xa9, 0x37, 0xbf, 0xc3, 0xd3, 0xdc, 0xbe, 0x03, 0x94, 0x86, 0xbe, 0x15, 0x68, 0x87, 0xbd, 0x8a, 0xb8, 0x4b, 0xbe, 0x3a, 0xd3, 0x91, 0x3e, 0x30, 0xe1, 0xf3, 0x3e, 0x29, 0xc3, 0x81, 0x3f, 0xab, 0xf8, 0x83, 0x3f, 0x2a, 0xd7, 0x3c, 0x3f, 0x0e, 0x3f, 0x50, 0x3e, 0x5e, 0xa0, 0x69, 0x3e, 0xba, 0xb6, 0x49, 0xbd, 0xc5, 0xea, 0x90, 0xbf, 0x1c, 0x34, 0x77, 0xbf, 0x08, 0xc2, 0x19, 0xbc, 0x36, 0x08, 0x64, 0x3e, 0x0f, 0x06, 0xd7, 0xbc, 0x37, 0x1b, 0x9f, 0x3e, 0xb4, 0xa0, 0xad, 0x3d, 0x11, 0x47, 0xd4, 0x3d, 0x6a, 0x99, 0x8e, 0xbd, 0x6e, 0x03, 0x90, 0x3e, 0x67, 0x18, 0x3d, 0x3e, 0x72, 0x96, 0xea, 0x3d, 0x20, 0xf5, 0xb0, 0x3c, 0x74, 0x0a, 0xf3, 0x3e, 0x92, 0xbd, 0xac, 0x3d, 0x1b, 0x1f, 0xf1, 0x3d, 0x39, 0x46, 0x3f, 0x3f, 0x67, 0x24, 0xce, 0x3e, 0x2c, 0xce, 0x11, 0x3f, 0xf3, 0x44, 0x97, 0x3e, 0xa5, 0xa6, 0x82, 0x3e, 0xab, 0xe3, 0xc6, 0xbe, 0xb3, 0xbd, 0xd1, 0xbe, 0xed, 0x3d, 0x1a, 0xbf, 0x5a, 0xfd, 0x91, 0xbe, 0x31, 0x41, 0x2f, 0x3f, 0xc2, 0xaf, 0x9d, 0x3f, 0x32, 0xff, 0xf0, 0x3e, 0x95, 0xb5, 0x82, 0x3e, 0x0e, 0x4d, 0x74, 0x3e, 0x91, 0xc0, 0x7e, 0x3d, 0xa9, 0x4c, 0xb3, 0x3e, 0xc1, 0x46, 0xcb, 0x3e, 0x2f, 0x23, 0xc7, 0xbe, 0xe5, 0x3f, 0x5f, 0xbf, 0x24, 0x71, 0xbc, 0x3d, 0x3e, 0x45, 0xb0, 0x3e, 0x48, 0x3d, 0xeb, 0xbe, 0xf0, 0x81, 0x5b, 0xbb, 0xd9, 0x9a, 0x54, 0x3f, 0x71, 0xe4, 0x44, 0x3e, 0x3e, 0x43, 0xcb, 0xbe, 0x39, 0x27, 0x20, 0x3d, 0xdd, 0x7f, 0xee, 0xbe, 0x7f, 0x81, 0x53, 0xbf, 0x80, 0xe8, 0xcd, 0x3e, 0x3a, 0xae, 0x48, 0x3f, 0x52, 0x83, 0xce, 0xbe, 0xe2, 0x68, 0x0f, 0xbe, 0x6c, 0xd3, 0x17, 0x3e, 0x0f, 0x50, 0x32, 0xbf, 0x25, 0xb2, 0x98, 0xbe, 0x0f, 0x4f, 0xb0, 0x3e, 0x69, 0x6d, 0x74, 0xbe, 0x9c, 0x93, 0x19, 0xbf, 0xe0, 0x7d, 0xd7, 0xbd, 0xc5, 0x4b, 0x1a, 0xbe, 0x48, 0x7b, 0xa6, 0xbe, 0x3a, 0xb9, 0x55, 0x3e, 0xc3, 0x6a, 0x3f, 0xbe, 0x95, 0xd9, 0xa6, 0xbe, 0x4d, 0x17, 0x4b, 0xbe, 0x7e, 0x8f, 0x0c, 0xbe, 0xc2, 0x00, 0xdc, 0xbd, 0x5b, 0x14, 0xc6, 0xbc, 0x0a, 0xee, 0xea, 0xbe, 0x6d, 0x56, 0x61, 0xbf, 0x73, 0xb1, 0x24, 0xbf, 0x62, 0x34, 0xfe, 0xbe, 0x34, 0x0b, 0x44, 0xbe, 0x61, 0xf1, 0x08, 0xbf, 0x2f, 0x23, 0xce, 0x3d, 0x7b, 0x4e, 0x07, 0x3f, 0x63, 0xf1, 0xe4, 0x3e, 0xa1, 0xe2, 0xdb, 0xbc, 0x9a, 0x88, 0xa6, 0xbe, 0x65, 0x31, 0x7d, 0x3e, 0x5f, 0x3a, 0xb5, 0xbe, 0x69, 0xee, 0x03, 0xbe, 0x2c, 0x64, 0x33, 0xbe, 0x3a, 0xac, 0x0d, 0xbf, 0xd0, 0xb0, 0x17, 0xbe, 0x13, 0xee, 0x4e, 0xbe, 0x85, 0xad, 0x4b, 0xbf, 0xe5, 0xb5, 0x0f, 0xbf, 0xef, 0x1b, 0x87, 0xbd, 0x3f, 0x73, 0x8e, 0xbe, 0x76, 0x14, 0xac, 0x3d, 0x60, 0x12, 0x97, 0xbe, 0x90, 0x3a, 0x5c, 0xbe, 0xa6, 0x21, 0xd3, 0xbe, 0x4b, 0xfa, 0x0d, 0xbf, 0x96, 0x83, 0x39, 0xbf, 0x96, 0xd6, 0x0f, 0xbf, 0xdf, 0xf9, 0x0b, 0xbf, 0x36, 0x38, 0xda, 0xbd, 0xfe, 0xdd, 0x84, 0xbe, 0x08, 0xf6, 0xa6, 0xbf, 0xba, 0x85, 0x09, 0xbf, 0xe4, 0xf3, 0x47, 0xbe, 0x4a, 0x8b, 0x7b, 0xbf, 0x1b, 0x1d, 0xa1, 0xbf, 0xa5, 0x82, 0x27, 0xbf, 0xb1, 0xd7, 0x48, 0x3e, 0xb7, 0xf4, 0x0e, 0x3d, 0x6d, 0x54, 0x93, 0x3d, 0x7d, 0xce, 0xfb, 0xbe, 0xaf, 0x3a, 0x93, 0xbe, 0x0a, 0x58, 0xe3, 0xbe, 0x61, 0x00, 0xb1, 0xbe, 0x24, 0x4d, 0x83, 0xbe, 0x16, 0x53, 0x3a, 0xbf, 0x1d, 0xf6, 0xf1, 0xbe, 0x38, 0x6f, 0x6b, 0xbf, 0xdd, 0xd1, 0x6e, 0xbf, 0x29, 0x18, 0x34, 0xbf, 0xd3, 0x94, 0x17, 0xbf, 0x59, 0x6e, 0x21, 0xbf, 0x19, 0x58, 0xc9, 0xbe, 0x09, 0x6b, 0x95, 0x39, 0xaa, 0x2f, 0x62, 0xbe, 0x8c, 0x8e, 0x78, 0xbe, 0x8c, 0x5a, 0x84, 0xbe, 0xf0, 0x0f, 0x51, 0xbf, 0x34, 0xe4, 0x2c, 0xbe, 0xfa, 0x27, 0x1a, 0xbf, 0xa8, 0x1a, 0x78, 0xbf, 0xd9, 0x6f, 0x41, 0xbf, 0x97, 0xaa, 0x11, 0xbf, 0x16, 0x11, 0x02, 0xbf, 0x04, 0x29, 0x1a, 0xbf, 0x01, 0x70, 0x4c, 0xbf, 0x25, 0x4a, 0x69, 0xbe, 0x8f, 0xf6, 0x06, 0xbf, 0x23, 0xf6, 0xab, 0xbf, 0xfa, 0x81, 0x64, 0xbf, 0xdc, 0x1d, 0xef, 0xbe, 0x5f, 0xf5, 0x83, 0xbd, 0xa5, 0xec, 0x93, 0xbd, 0x1e, 0xca, 0xdc, 0x3e, 0xc1, 0xaa, 0x84, 0xbe, 0xb6, 0x82, 0xe5, 0xbe, 0x1e, 0xdb, 0xe3, 0xbe, 0x12, 0x98, 0xab, 0xbe, 0xcd, 0xa8, 0x13, 0xbf, 0xed, 0xa6, 0x6b, 0xbe, 0x31, 0x9b, 0x16, 0xbf, 0xac, 0x8e, 0xb2, 0xbf, 0xab, 0xaa, 0x3c, 0xbf, 0x40, 0xde, 0x1e, 0xbf, 0x5e, 0x5b, 0xb9, 0xbe, 0x2f, 0x0f, 0xe3, 0xbb, 0xd9, 0xe5, 0x09, 0xbe, 0x07, 0xad, 0x27, 0xbf, 0x2f, 0x91, 0x39, 0xbf, 0x59, 0x2f, 0x7c, 0xbf, 0xf7, 0x45, 0x29, 0xbf, 0x7e, 0xa4, 0x49, 0xbf, 0x2e, 0x82, 0x07, 0x3d, 0x88, 0x5f, 0xa7, 0x3d, 0xf9, 0xc0, 0x8c, 0xbe, 0xd7, 0xa2, 0x86, 0xbe, 0xc2, 0xec, 0xb4, 0xbd, 0xbb, 0x04, 0x11, 0xbf, 0xd2, 0x4a, 0x10, 0xbf, 0xbb, 0x0e, 0x0e, 0x3e, 0xc1, 0x4b, 0xc2, 0x3e, 0x46, 0xfd, 0x18, 0xba, 0x3a, 0x7b, 0x56, 0xbf, 0x68, 0x16, 0xdf, 0xbd, 0xc2, 0xe3, 0x0b, 0xbf, 0x60, 0x1d, 0x07, 0xbf, 0x92, 0x07, 0xc7, 0x3c, 0x51, 0xb4, 0x85, 0x3e, 0x85, 0x61, 0x59, 0x3e, 0xd8, 0x02, 0xa3, 0xbe, 0x7d, 0xcd, 0x52, 0xbf, 0x77, 0x73, 0x47, 0xbf, 0xa3, 0xee, 0xed, 0x3d, 0x81, 0x85, 0x93, 0xbd, 0x1e, 0x8b, 0xdc, 0xbd, 0x1f, 0x57, 0x08, 0xbf, 0x99, 0x4c, 0xa0, 0x3e, 0xcb, 0x6d, 0x04, 0x3e, 0x35, 0x78, 0xb0, 0xbf, 0x13, 0xc7, 0x32, 0xbf, 0xc3, 0x7a, 0x14, 0xbf, 0x1c, 0xd5, 0x2f, 0xbf, 0x37, 0x90, 0xb8, 0xbe, 0x99, 0x3f, 0x99, 0xbe, 0x69, 0x4e, 0xac, 0xbd, 0x65, 0x6b, 0x23, 0xbd, 0xa6, 0xb1, 0x51, 0xbe, 0xd2, 0x2f, 0x48, 0x3e, 0x22, 0x64, 0xb2, 0x3e, 0x9c, 0x49, 0xb4, 0xbe, 0xd4, 0xb0, 0x4c, 0xbf, 0x01, 0x64, 0x5b, 0x3e, 0x56, 0x67, 0x01, 0x3e, 0x30, 0x3a, 0xa2, 0x3d, 0x4f, 0x78, 0xce, 0x3d, 0x73, 0xbd, 0x34, 0xbf, 0x32, 0xcf, 0xf5, 0xbe, 0xd0, 0xe9, 0xd6, 0xbe, 0x8a, 0xe1, 0x4a, 0x3e, 0x48, 0x95, 0xd4, 0xbe, 0xc1, 0xe5, 0x14, 0xbf, 0xa1, 0x71, 0x29, 0x3d, 0xda, 0x1f, 0xf8, 0xbe, 0x78, 0x4e, 0xac, 0x3e, 0xd3, 0xf7, 0xcb, 0xbe, 0xea, 0x94, 0x65, 0xbf, 0x82, 0xd3, 0x65, 0xbe, 0x68, 0x7a, 0x96, 0x3e, 0x66, 0x70, 0xca, 0xbe, 0x7b, 0x02, 0x1a, 0xbf, 0x53, 0xe5, 0x6c, 0xbf, 0x33, 0x8e, 0x61, 0xbf, 0xa3, 0x1e, 0xc1, 0x3d, 0x32, 0x96, 0x46, 0xbe, 0x46, 0xff, 0x4a, 0xbf, 0x57, 0x37, 0x3a, 0xbd, 0xd4, 0x2e, 0x8d, 0xbc, 0x0c, 0x21, 0xcf, 0xb9, 0x0a, 0x00, 0xb4, 0xbd, 0xc8, 0x1f, 0xce, 0xbd, 0xa9, 0xb5, 0x2c, 0x3f, 0x56, 0x8c, 0xbe, 0x3e, 0xd9, 0x38, 0x11, 0xbf, 0x80, 0xc0, 0x7b, 0xbe, 0x6a, 0xa9, 0xc2, 0xbe, 0xb7, 0xe7, 0xc3, 0xbe, 0xcf, 0xc6, 0x20, 0xbf, 0x2a, 0xb0, 0xa0, 0xbe, 0x64, 0x1f, 0x71, 0xbd, 0xc7, 0x7a, 0xaa, 0xbe, 0x17, 0xaf, 0x1a, 0xbf, 0x7c, 0x61, 0x89, 0xbe, 0x5d, 0x7a, 0xc2, 0xbe, 0xd4, 0x17, 0xe8, 0xbe, 0x74, 0x19, 0xca, 0xbd, 0x3d, 0xd7, 0x1a, 0xbf, 0xc9, 0x7b, 0x7d, 0xbd, 0x39, 0xdb, 0x4f, 0xbe, 0x9c, 0x29, 0x83, 0xbf, 0x3c, 0x80, 0x28, 0xbf, 0x05, 0x25, 0x7f, 0xbe, 0xce, 0x6b, 0x62, 0xbe, 0x30, 0xff, 0xc2, 0xbe, 0xc6, 0xd7, 0x7f, 0xbe, 0xb6, 0xb1, 0x0c, 0xbf, 0xb9, 0x90, 0x62, 0xbf, 0x7f, 0xbe, 0x22, 0xbf, 0xfb, 0x0a, 0xc3, 0xbe, 0x8e, 0x12, 0xa6, 0xbe, 0x03, 0xa4, 0xfe, 0x3d, 0x10, 0x1f, 0xa6, 0x3e, 0xf2, 0x0a, 0xeb, 0x3d, 0x65, 0x8e, 0x9b, 0xbe, 0x86, 0xd3, 0xfd, 0xbe, 0xb9, 0xfa, 0x2a, 0x3b, 0xd9, 0x9f, 0x73, 0xbe, 0xe2, 0x69, 0xfb, 0xbe, 0x2a, 0x18, 0xeb, 0xbe, 0xbd, 0xf7, 0x0d, 0xbf, 0x1c, 0xbb, 0x1c, 0xbf, 0xab, 0x32, 0x8e, 0xbe, 0x42, 0xfb, 0x16, 0xbf, 0x9e, 0xc2, 0x3e, 0xbf, 0x14, 0x88, 0x04, 0xbf, 0x81, 0xf8, 0xac, 0xbc, 0x02, 0x3c, 0x58, 0xbc, 0xfc, 0x49, 0x95, 0xbe, 0x2a, 0xb7, 0x08, 0xbf, 0x14, 0x11, 0xd9, 0xbe, 0x4c, 0x93, 0x8a, 0x3e, 0xf7, 0x94, 0x17, 0x3f, 0x52, 0x9e, 0xf8, 0xbd, 0x42, 0x79, 0x5b, 0xbe, 0xd1, 0x32, 0xc3, 0x3d, 0x6e, 0xcc, 0xa3, 0xbd, 0x46, 0xdd, 0xd7, 0xbe, 0x07, 0xd1, 0x8f, 0x3e, 0x01, 0xb8, 0xed, 0xbd, 0x7c, 0xc1, 0x01, 0xbf, 0x57, 0xd1, 0x17, 0xbf, 0x2e, 0x16, 0x3d, 0xbe, 0x35, 0xe9, 0xaf, 0xbe, 0xf7, 0x6b, 0xb6, 0xbd, 0x7a, 0xc2, 0x6d, 0xbd, 0x31, 0x48, 0x89, 0xbe, 0x83, 0xb4, 0xc4, 0xbe, 0x80, 0xd3, 0x94, 0xbe, 0x65, 0x5b, 0xe8, 0x3d, 0x88, 0xf5, 0x45, 0xbe, 0x8b, 0xbc, 0x11, 0xbf, 0x61, 0xbd, 0xaa, 0xbe, 0x6d, 0x54, 0xaa, 0xbd, 0xae, 0x80, 0xd8, 0xbe, 0xd2, 0x9a, 0x54, 0xbe, 0x25, 0x82, 0xa9, 0xbd, 0xb0, 0x5e, 0x9b, 0xbe, 0xb0, 0xf6, 0x9a, 0x3e, 0x59, 0x79, 0xac, 0x3e, 0xc0, 0x70, 0x1c, 0xbf, 0xb3, 0x52, 0x21, 0xbf, 0x44, 0x7e, 0x1e, 0xbe, 0x76, 0x04, 0x45, 0xbe, 0x37, 0xdb, 0xae, 0xbe, 0xce, 0x14, 0xa3, 0xbd, 0x1d, 0x97, 0xc4, 0xbe, 0x17, 0xcc, 0xbd, 0xbf, 0x7f, 0x86, 0x97, 0x3f, 0x61, 0x9d, 0x5a, 0xbe, 0x2a, 0x1a, 0x39, 0xbc, 0x94, 0xaa, 0x48, 0x3d, 0x07, 0x79, 0x4f, 0x3e, 0xc2, 0x6c, 0xca, 0x3e, 0xf0, 0x55, 0xf5, 0x3e, 0xd5, 0x08, 0x10, 0x3f, 0xef, 0xa9, 0x0a, 0x3e, 0xb6, 0xdc, 0x62, 0xbd, 0xaa, 0x37, 0xae, 0x3e, 0x12, 0x92, 0x56, 0x3e, 0x33, 0x5b, 0x63, 0xbe, 0x00, 0x18, 0x34, 0xbd, 0xf9, 0xe7, 0x92, 0x3d, 0x3d, 0x04, 0xba, 0xbe, 0xf3, 0x75, 0xc2, 0xbd, 0x79, 0x5f, 0x5e, 0x3e, 0x33, 0xab, 0xf2, 0xbc, 0xce, 0x99, 0x6f, 0x3e, 0xf8, 0xad, 0x16, 0x3f, 0x69, 0x32, 0x1c, 0x3f, 0xf1, 0xca, 0x28, 0x3e, 0xce, 0x31, 0x33, 0x3e, 0x93, 0x0f, 0x24, 0xbf, 0x58, 0x67, 0x39, 0x3e, 0x8c, 0xec, 0x34, 0x3f, 0xa5, 0xc5, 0x86, 0x3e, 0x04, 0x21, 0x03, 0x3f, 0xc2, 0x42, 0xd6, 0x3e, 0x02, 0x74, 0xb4, 0x3e, 0xe2, 0x5b, 0xd1, 0x3e, 0x91, 0xe9, 0xba, 0xbe, 0x80, 0xe3, 0xab, 0xbe, 0x85, 0x3c, 0x89, 0xbe, 0x52, 0xe9, 0xe1, 0x3e, 0x58, 0x2e, 0x99, 0x3e, 0xd6, 0xe8, 0x94, 0x3e, 0xa8, 0x6a, 0x09, 0x3f, 0x7b, 0x55, 0x7c, 0xbd, 0x2d, 0xdd, 0xb3, 0x3e, 0x37, 0x1b, 0x9d, 0x3e, 0x7d, 0x99, 0xb4, 0xbd, 0xc6, 0x1b, 0x25, 0x3e, 0x0c, 0xd5, 0x8f, 0x3d, 0xab, 0x25, 0x6b, 0xbe, 0x5d, 0xfa, 0x10, 0xbe, 0x65, 0x68, 0xb9, 0x3e, 0x92, 0x05, 0xd2, 0xbe, 0xaa, 0x29, 0xca, 0x3d, 0xdf, 0x22, 0xde, 0x3e, 0x9a, 0x66, 0xb4, 0xbd, 0x8e, 0xc9, 0x86, 0xbd, 0x15, 0xae, 0xb1, 0x3d, 0x59, 0x8c, 0x0c, 0xbd, 0x1a, 0x79, 0xdf, 0xbd, 0x37, 0xec, 0x2d, 0x3f, 0x08, 0xa3, 0x05, 0x3e, 0x56, 0xac, 0x94, 0xbe, 0xf9, 0x11, 0x00, 0x3e, 0xd7, 0xe6, 0x3c, 0xbd, 0xec, 0x80, 0x27, 0xbe, 0x1a, 0x71, 0xae, 0x3e, 0xfc, 0xf5, 0xf9, 0xbc, 0xef, 0x8f, 0x8b, 0x3d, 0xdf, 0xf1, 0xf7, 0x3e, 0x95, 0x6c, 0x5e, 0xbe, 0xb8, 0xc0, 0x8f, 0xbe, 0x38, 0x0f, 0xc2, 0xbd, 0x42, 0xf9, 0xa4, 0x3c, 0xa5, 0xa5, 0xd9, 0xbd, 0x63, 0x35, 0x30, 0x3f, 0x83, 0x63, 0x2f, 0x3e, 0x43, 0x0b, 0x69, 0xbe, 0x2b, 0xed, 0x45, 0x3e, 0x0f, 0x96, 0x63, 0x3e, 0x27, 0xe6, 0x74, 0x3a, 0x21, 0x97, 0x22, 0xbf, 0x1a, 0x2d, 0x80, 0xbe, 0x86, 0x7a, 0xb2, 0xbb, 0x13, 0x94, 0xe7, 0x3d, 0xe0, 0x14, 0x8e, 0x3d, 0x7c, 0x71, 0x02, 0xbe, 0xc7, 0xf9, 0x91, 0x3e, 0x15, 0xf0, 0x32, 0xbe, 0x69, 0x22, 0x89, 0xbe, 0xa8, 0xc9, 0x32, 0xbf, 0xa4, 0x83, 0x74, 0xbe, 0x6f, 0x90, 0x75, 0xbd, 0x65, 0x16, 0xc8, 0xbe, 0xaa, 0x95, 0x8c, 0xbd, 0x12, 0xa3, 0xde, 0xbe, 0x62, 0xed, 0xa9, 0xbe, 0xf1, 0x7a, 0x67, 0xbd, 0x58, 0x5f, 0x1d, 0xbe, 0x68, 0x0f, 0xcf, 0xbe, 0xbc, 0xea, 0x9d, 0x3d, 0xcb, 0xa2, 0x16, 0xbe, 0xd6, 0x00, 0xa5, 0xbe, 0x0b, 0xf7, 0x2e, 0xbe, 0x16, 0x19, 0x95, 0x3d, 0x6d, 0x6b, 0xee, 0xbd, 0x6d, 0xcd, 0xee, 0xbe, 0x8d, 0x4f, 0xc3, 0xbd, 0x48, 0x16, 0xe4, 0xbe, 0x90, 0x7d, 0xfc, 0xbe, 0xfc, 0xe4, 0xe9, 0xbe, 0x73, 0xcb, 0x46, 0xbf, 0x06, 0xcc, 0x43, 0xbf, 0xdc, 0x71, 0x38, 0xbe, 0x9e, 0x3e, 0x96, 0x3e, 0xeb, 0x92, 0xa9, 0x3e, 0x36, 0x9d, 0x1f, 0x3f, 0xee, 0x8f, 0xae, 0x3e, 0x7b, 0x87, 0xa1, 0x3e, 0x9e, 0xca, 0xbd, 0xbe, 0x8d, 0xb1, 0x00, 0xbf, 0x7f, 0xfc, 0x56, 0xbf, 0x00, 0x40, 0xc9, 0xbe, 0x2b, 0xea, 0x6d, 0xbe, 0x98, 0x6c, 0x87, 0x3e, 0xd4, 0x51, 0x61, 0xbd, 0xfc, 0xd7, 0x9e, 0x3e, 0xab, 0x30, 0xa2, 0x3e, 0x2d, 0x6b, 0x1a, 0x3d, 0xff, 0x7f, 0x17, 0xbf, 0x64, 0x9b, 0x43, 0xbf, 0x07, 0x3a, 0x3d, 0xbf, 0xb0, 0xa6, 0x91, 0x3e, 0xbd, 0x0f, 0xa3, 0x3e, 0xbc, 0xc2, 0xd4, 0xbe, 0x87, 0x16, 0x14, 0xbf, 0x57, 0x76, 0x93, 0xbd, 0xd8, 0xb3, 0xe8, 0xbe, 0x99, 0x31, 0x2a, 0xbf, 0x9e, 0xb9, 0x41, 0xbf, 0xb4, 0xf7, 0xd1, 0xbe, 0x25, 0x42, 0x82, 0x3e, 0xaf, 0xb0, 0x34, 0xbe, 0xfc, 0xe5, 0xae, 0xbe, 0x2e, 0x34, 0x40, 0xbe, 0xd9, 0xbf, 0x19, 0xbf, 0x23, 0x38, 0xbf, 0xbe, 0xbc, 0x57, 0xb4, 0xbe, 0xc9, 0x85, 0x09, 0xbf, 0x6c, 0xb2, 0xd8, 0xbe, 0xd4, 0x05, 0x9a, 0x3d, 0xba, 0x88, 0xbc, 0x3d, 0xc7, 0x1b, 0x44, 0xbe, 0x48, 0x99, 0xb2, 0x3e, 0x14, 0xe5, 0x0a, 0x3e, 0x2a, 0x7a, 0xdd, 0xbe, 0xc0, 0xaa, 0xfb, 0xbb, 0xea, 0x4f, 0x23, 0xbc, 0x6d, 0x03, 0xcd, 0xbe, 0x84, 0xb9, 0x77, 0xbf, 0xc2, 0xc1, 0xc2, 0xbe, 0x33, 0x02, 0xb6, 0x3e, 0xff, 0xc8, 0x45, 0x3e, 0x3b, 0x59, 0xd8, 0xbe, 0x5e, 0x60, 0xae, 0xbd, 0x05, 0x38, 0x85, 0x3e, 0xae, 0x4b, 0x93, 0xbe, 0x91, 0x43, 0xb7, 0xbe, 0xca, 0x1b, 0x88, 0x3e, 0x59, 0x4d, 0xaf, 0xbd, 0xd5, 0x89, 0x43, 0xbf, 0x0c, 0xd2, 0x60, 0xbe, 0x1b, 0x46, 0x0c, 0x3f, 0xb0, 0x7b, 0x14, 0x3f, 0x7e, 0x1a, 0xbb, 0x3e, 0x54, 0x55, 0x1c, 0x3f, 0x4d, 0x8a, 0x6d, 0x3d, 0x8e, 0xcd, 0xd3, 0xbe, 0x63, 0x9e, 0x4e, 0xbd, 0xaa, 0x22, 0xe2, 0xbe, 0x2e, 0xb7, 0x15, 0xbf, 0x48, 0x11, 0x46, 0xbe, 0x1c, 0xf0, 0x36, 0x3e, 0x34, 0xbe, 0x5d, 0xbe, 0xb3, 0xd4, 0xc2, 0xbe, 0x57, 0xa4, 0x19, 0xbf, 0xfb, 0x21, 0x45, 0xbf, 0x5f, 0xd7, 0x33, 0xbe, 0x68, 0x2c, 0x9a, 0x3c, 0x4b, 0xec, 0xdf, 0xbc, 0x47, 0xcf, 0xe5, 0xbe, 0xf0, 0x73, 0x4d, 0xbe, 0x22, 0x79, 0x33, 0xbe, 0xb1, 0xe4, 0x8b, 0xbf, 0x6f, 0x72, 0x0f, 0xbf, 0x38, 0xaa, 0x3a, 0x3f, 0x97, 0x6c, 0xf7, 0x3e, 0xe4, 0xcb, 0x2a, 0xbe, 0x89, 0x28, 0xc2, 0xbd, 0xe8, 0xd7, 0x98, 0x3d, 0x09, 0xdc, 0x16, 0xbf, 0xe0, 0x00, 0xc3, 0xbe, 0x20, 0x10, 0xe6, 0x3d, 0x27, 0xda, 0x83, 0xbf, 0x34, 0x8e, 0x1b, 0xbf, 0xdb, 0x5b, 0x9b, 0x3f, 0x97, 0xb4, 0x92, 0x3f, 0xce, 0x4b, 0xc4, 0x3d, 0x45, 0xe0, 0x2e, 0xbf, 0x4c, 0x8d, 0x30, 0x3f, 0x9d, 0xf1, 0x83, 0x3e, 0xee, 0xfc, 0x05, 0xbf, 0x34, 0xaa, 0xa5, 0xbe, 0x43, 0x51, 0xc6, 0xbe, 0xb5, 0x71, 0x75, 0xbc, 0xab, 0x6a, 0x7a, 0x3c, 0x16, 0x60, 0xc8, 0xbe, 0xba, 0x29, 0xde, 0xbe, 0x66, 0xc2, 0xb2, 0x3f, 0x54, 0x73, 0x95, 0x3f, 0x52, 0x17, 0xc2, 0xbe, 0xfe, 0x6c, 0x6e, 0xbf, 0xca, 0x75, 0x14, 0xbe, 0x53, 0x32, 0x12, 0x3e, 0x69, 0xe4, 0xd7, 0xbe, 0x6b, 0x47, 0x04, 0xbe, 0x0d, 0xfe, 0xa0, 0x3e, 0x00, 0x7a, 0x2c, 0x3f, 0x15, 0xec, 0x2c, 0x3e, 0x11, 0xb6, 0xf6, 0x3d, 0xe6, 0x12, 0xeb, 0x3e, 0x38, 0x55, 0x4e, 0x3d, 0x5d, 0xf7, 0x5c, 0xbf, 0x31, 0x13, 0x35, 0xbf, 0xb6, 0x0c, 0x4a, 0xbb, 0x9a, 0x29, 0x2b, 0xbf, 0xee, 0xde, 0xfc, 0xbe, 0xba, 0xa2, 0x20, 0x3f, 0x5e, 0x24, 0x76, 0x3f, 0x59, 0xb6, 0xa3, 0x3d, 0x92, 0xcb, 0x4e, 0xbe, 0x0b, 0x84, 0x01, 0x3f, 0xe4, 0xc8, 0x86, 0x3d, 0x18, 0xa2, 0x45, 0xbf, 0xb4, 0x96, 0x02, 0xbf, 0x3e, 0x54, 0xa8, 0xbd, 0xe0, 0x6d, 0x13, 0xbe, 0x69, 0xab, 0xe8, 0x3c, 0x82, 0x99, 0x5a, 0x3f, 0xc5, 0xee, 0x84, 0x3f, 0xb5, 0x55, 0x43, 0x3f, 0xec, 0xe5, 0x64, 0x3e, 0xbf, 0x8d, 0xa2, 0xbe, 0x1f, 0x7b, 0x14, 0x3c, 0x63, 0xbb, 0x0d, 0xbd, 0x0c, 0xdc, 0x92, 0x3e, 0xc9, 0x67, 0x2a, 0x3d, 0x4d, 0xb8, 0x47, 0x3f, 0x0d, 0xa8, 0x69, 0x3f, 0xab, 0xcf, 0x70, 0xbe, 0xb2, 0x06, 0x32, 0xbf, 0x38, 0xd3, 0x00, 0xbe, 0x1e, 0x9a, 0x96, 0x3e, 0xda, 0x2a, 0x97, 0xbe, 0xb5, 0x1d, 0xad, 0xbe, 0x6e, 0x63, 0x98, 0xbd, 0x1e, 0xfd, 0x13, 0x3e, 0x14, 0xbe, 0xb6, 0x3e, 0x05, 0xa7, 0x0e, 0xbf, 0x92, 0x6c, 0x4b, 0xbf, 0x4c, 0xec, 0x83, 0xbf, 0x9c, 0x89, 0x26, 0xbf, 0x45, 0x02, 0xc8, 0xbe, 0x8b, 0x74, 0x18, 0xbf, 0x9e, 0x7d, 0x3b, 0xbc, 0x68, 0x30, 0x1a, 0x3f, 0x4c, 0xaa, 0x36, 0x3d, 0x7e, 0xe9, 0x3e, 0xbe, 0xd2, 0x95, 0xb9, 0xbd, 0x90, 0x4f, 0x86, 0xbe, 0x93, 0x81, 0x4d, 0xbf, 0xd9, 0xfe, 0x3c, 0xbf, 0x52, 0xc7, 0x83, 0x3e, 0x64, 0xb1, 0xed, 0x3d, 0x8e, 0x48, 0x09, 0xbf, 0x03, 0x9e, 0x1d, 0xbf, 0x67, 0xa3, 0x5e, 0xbf, 0x8f, 0x60, 0x94, 0xbf, 0xea, 0xb9, 0x2a, 0xbf, 0x80, 0xef, 0x79, 0xbe, 0x44, 0x61, 0xf3, 0xbe, 0x43, 0x8d, 0x08, 0xbf, 0xb0, 0xf0, 0xd7, 0xbe, 0xba, 0x81, 0x91, 0xbe, 0x58, 0x76, 0x25, 0xbe, 0x97, 0x21, 0xc3, 0xbe, 0xa1, 0x2f, 0x86, 0xbf, 0xde, 0xba, 0xe7, 0xbe, 0x92, 0xd4, 0x04, 0x3f, 0xdc, 0x51, 0x72, 0xbc, 0x76, 0x34, 0x0a, 0xbf, 0xd7, 0x25, 0xdd, 0xbe, 0x5e, 0x1e, 0xd5, 0x3e, 0x03, 0x30, 0x30, 0x3f, 0xb5, 0xcd, 0xff, 0x3e, 0x8e, 0x40, 0x3b, 0x3f, 0x7d, 0xa8, 0xc6, 0x3e, 0xbb, 0xbc, 0x97, 0xbe, 0x24, 0xd4, 0x3e, 0xbf, 0x50, 0xd3, 0xfe, 0xbe, 0x1b, 0x68, 0x31, 0xbf, 0x32, 0xef, 0x02, 0xbf, 0xea, 0xea, 0x18, 0xbf, 0x32, 0x48, 0x4d, 0xbf, 0xea, 0xd4, 0xb5, 0xbe, 0xf5, 0x65, 0xbb, 0xbe, 0x07, 0x36, 0x17, 0xbd, 0xfc, 0x3b, 0x10, 0x3f, 0x28, 0x69, 0x30, 0x3e, 0xad, 0x3a, 0x5e, 0xbf, 0x14, 0x81, 0xd6, 0xbe, 0x56, 0xc8, 0x16, 0x3f, 0x73, 0xe0, 0xd5, 0x3d, 0x93, 0xb1, 0x98, 0xbf, 0x7c, 0x36, 0x13, 0xbf, 0xfc, 0x1f, 0x05, 0xbe, 0xf7, 0x1f, 0xaf, 0xbe, 0x3d, 0x77, 0x96, 0xbe, 0xd9, 0x95, 0x21, 0x3e, 0x3d, 0xfb, 0x73, 0xbd, 0x3b, 0xe4, 0x85, 0xbf, 0x8b, 0xb3, 0x2d, 0xbf, 0x11, 0x42, 0xe2, 0xbe, 0xb6, 0x97, 0x3d, 0xbf, 0xff, 0x96, 0x81, 0xbe, 0x2f, 0xfe, 0xc6, 0x3b, 0x97, 0x1c, 0xb6, 0xbe, 0x9c, 0xcf, 0x08, 0xbf, 0x23, 0xcd, 0xe5, 0x3d, 0x81, 0x71, 0x83, 0x3b, 0x82, 0x16, 0x50, 0xbe, 0xad, 0x53, 0xc6, 0xbe, 0x97, 0x3e, 0x47, 0xbe, 0x18, 0x0a, 0x06, 0xbf, 0xe1, 0x00, 0xb8, 0xbe, 0x6e, 0x26, 0xf0, 0x3e, 0xda, 0x79, 0x59, 0x3f, 0x1f, 0x76, 0xa9, 0x3e, 0x3f, 0x9d, 0xb7, 0x3c, 0x2f, 0x7a, 0xac, 0x3c, 0x14, 0x50, 0xf7, 0x3d, 0x9b, 0x1c, 0x35, 0x3f, 0x99, 0xf0, 0xe9, 0x3e, 0xa6, 0xdc, 0x40, 0x3e, 0x33, 0x11, 0xc2, 0x3e, 0x91, 0xee, 0xbf, 0xbe, 0x60, 0xe6, 0x3b, 0xbf, 0x8c, 0x6b, 0xf1, 0xbd, 0x73, 0x78, 0xe5, 0x3e, 0x4d, 0x00, 0x81, 0xbe, 0x22, 0x07, 0x48, 0xbf, 0xbe, 0x3e, 0x97, 0xbe, 0xfb, 0x63, 0xb8, 0xbd, 0x79, 0xf7, 0xef, 0xbe, 0x62, 0x8e, 0xcf, 0xbe, 0xb7, 0x2a, 0x15, 0x3f, 0x69, 0x09, 0x38, 0x3f, 0x05, 0x40, 0x4e, 0x3d, 0x71, 0x4a, 0x38, 0xbf, 0xe2, 0xe0, 0xfc, 0x3d, 0xbf, 0x28, 0x31, 0x3f, 0xce, 0x2c, 0x50, 0xbd, 0xc8, 0x6d, 0x06, 0xbf, 0x61, 0x70, 0xca, 0x3d, 0xd0, 0x7a, 0x40, 0xbf, 0xf6, 0xaf, 0xa1, 0xbe, 0x39, 0xea, 0x8e, 0x3e, 0x24, 0x9e, 0x49, 0x3f, 0x0d, 0x23, 0x7e, 0x3f, 0xfe, 0x7d, 0x6f, 0x3e, 0x03, 0xc1, 0xf8, 0xbe, 0x15, 0x66, 0x93, 0x3e, 0x60, 0xd8, 0x00, 0x3f, 0x2c, 0x53, 0x17, 0x3e, 0x17, 0xc5, 0xce, 0xbd, 0x2d, 0x59, 0xbc, 0xbe, 0x58, 0x00, 0xfb, 0xbe, 0xa7, 0x34, 0xf5, 0xbe, 0x65, 0x34, 0xe2, 0xbe, 0x5d, 0xa4, 0x6c, 0x3e, 0xb5, 0x41, 0xa3, 0xbd, 0x8e, 0x66, 0xdb, 0xbd, 0xd8, 0xd0, 0xbf, 0xbd, 0x11, 0x3c, 0x74, 0x3e, 0xab, 0x8e, 0xe5, 0x3d, 0x60, 0xdc, 0x8e, 0xbe, 0x47, 0xd4, 0x5d, 0xbe, 0xcb, 0x23, 0xa1, 0xbc, 0x99, 0x98, 0xf1, 0x3e, 0x15, 0xef, 0xe4, 0x3e, 0xd2, 0x89, 0xeb, 0xbe, 0xe7, 0x31, 0x35, 0xbe, 0xf1, 0xb2, 0xe6, 0xbd, 0x5e, 0x05, 0x4f, 0xbe, 0xa3, 0x2c, 0x63, 0xbe, 0x86, 0x2d, 0xa5, 0xbe, 0x66, 0x9f, 0x91, 0xbe, 0x8c, 0xac, 0x36, 0xba, 0xca, 0x59, 0x93, 0x3e, 0x52, 0x25, 0xa0, 0x3d, 0x54, 0xe7, 0x0c, 0xbe, 0xf5, 0x53, 0x19, 0x3f, 0x9a, 0x2f, 0x9e, 0xbe, 0x26, 0xec, 0xf7, 0xbe, 0x92, 0x8b, 0x02, 0xbf, 0x74, 0xff, 0x70, 0xbf, 0x53, 0x23, 0x93, 0xbe, 0x2b, 0xf8, 0xb0, 0x3d, 0x8e, 0x06, 0xce, 0x3d, 0x25, 0x8e, 0xd8, 0x3e, 0xbd, 0xdd, 0x2d, 0x3e, 0xcf, 0x88, 0xc1, 0xbb, 0x80, 0x28, 0x9c, 0x3e, 0x5d, 0x32, 0x54, 0x3e, 0xaf, 0x2d, 0xc8, 0xbe, 0x9b, 0x30, 0x9d, 0x3e, 0x0d, 0xe8, 0xab, 0xbb, 0x92, 0xa9, 0x25, 0xbe, 0xa7, 0x7a, 0x22, 0x3f, 0x5b, 0x60, 0x21, 0x3f, 0x37, 0x42, 0x67, 0x3e, 0x68, 0x9d, 0x4f, 0xbc, 0x60, 0x8e, 0xbb, 0xbe, 0x75, 0xf7, 0xb7, 0xbe, 0x64, 0x81, 0xe6, 0xbe, 0x4f, 0x19, 0x47, 0xbf, 0xb2, 0x26, 0x37, 0xbf, 0x51, 0x63, 0xd2, 0x3d, 0xb7, 0x05, 0x8e, 0xbd, 0x92, 0x7e, 0xae, 0x3e, 0x03, 0x58, 0xfd, 0x3e, 0x2d, 0x0e, 0xf3, 0xbe, 0x78, 0x64, 0xdb, 0xbc, 0xe4, 0x7e, 0x57, 0xbe, 0xd8, 0xcd, 0xaa, 0x3d, 0x3d, 0x92, 0xbe, 0x3e, 0xb0, 0x18, 0xd8, 0x3d, 0x34, 0xec, 0x96, 0xbe, 0xb7, 0xa9, 0x09, 0xbf, 0xab, 0x91, 0xaa, 0xbd, 0x54, 0x63, 0x6b, 0xbd, 0x0b, 0xec, 0x85, 0xbd, 0xc7, 0x39, 0x4a, 0xbe, 0xa8, 0x81, 0x1f, 0x3d, 0x2f, 0x49, 0x3b, 0xbe, 0x50, 0x6f, 0x36, 0xbd, 0xb1, 0x4f, 0xae, 0xbe, 0x16, 0x41, 0x4e, 0xbd, 0x4b, 0x97, 0xfc, 0x3c, 0xf3, 0x6d, 0x94, 0xbd, 0xee, 0x55, 0xb2, 0xbd, 0xc7, 0xf3, 0xde, 0x3e, 0x04, 0x44, 0xe5, 0x3e, 0xb4, 0x29, 0x58, 0xbe, 0x6c, 0x00, 0xa9, 0x3e, 0x72, 0xd3, 0x87, 0x3e, 0x6d, 0x90, 0xd5, 0xbe, 0x53, 0xcb, 0x38, 0xbe, 0x34, 0x05, 0xc3, 0x3e, 0x3a, 0x20, 0xfd, 0x3d, 0xc4, 0x3a, 0xd1, 0x3e, 0x89, 0xc1, 0x88, 0xbd, 0x59, 0x72, 0xf0, 0x3d, 0x31, 0xec, 0xd0, 0xbd, 0xdc, 0xed, 0xba, 0xbe, 0x7c, 0xa6, 0x08, 0xbe, 0x6d, 0x3f, 0x8f, 0x3d, 0x89, 0x4e, 0x1f, 0x3e, 0x43, 0x25, 0x32, 0xbf, 0x56, 0xc0, 0x80, 0xbe, 0x5c, 0x38, 0x91, 0xbe, 0x7f, 0x65, 0x49, 0xbe, 0xfe, 0x54, 0x7d, 0x3e, 0xe8, 0x99, 0xee, 0x3e, 0x65, 0x16, 0xea, 0x3d, 0x84, 0x13, 0x49, 0x3f, 0x4a, 0xf1, 0x42, 0x3f, 0x89, 0x27, 0x8c, 0xbe, 0x6e, 0x41, 0x16, 0xbe, 0x2a, 0xda, 0x14, 0x3f, 0x85, 0x15, 0x84, 0xbe, 0x0d, 0x8f, 0xeb, 0x3d, 0xee, 0x81, 0x56, 0x3f, 0xdd, 0x8f, 0x0f, 0x3f, 0x8f, 0x68, 0x18, 0x3f, 0x57, 0xf0, 0xdf, 0xbe, 0x6e, 0x64, 0xe1, 0xbe, 0x6d, 0xe5, 0xb4, 0xbb, 0x56, 0x6d, 0xce, 0xbd, 0xa1, 0x91, 0xc8, 0xbe, 0xf1, 0xd6, 0x3a, 0x3d, 0xe1, 0x17, 0xbc, 0xbe, 0x01, 0x68, 0xa7, 0x3e, 0x45, 0x91, 0xdf, 0x3d, 0x0e, 0x23, 0x56, 0xbe, 0xf8, 0x93, 0xb7, 0x3e, 0xd2, 0x52, 0x1e, 0xbe, 0xf5, 0x16, 0x2f, 0x3e, 0x41, 0x3e, 0xa8, 0x3e, 0xcc, 0x67, 0x8e, 0x3e, 0x8b, 0x64, 0xce, 0x3e, 0x55, 0xe0, 0xa8, 0xbd, 0x25, 0xb1, 0x5d, 0xbd, 0x24, 0x4f, 0x7a, 0xbd, 0xd8, 0xc5, 0xa9, 0x3e, 0xd4, 0xfc, 0x3e, 0x3f, 0xea, 0xfe, 0xff, 0xff, 0x10, 0x00, 0x00, 0x00, 0x04, 0x00, 0x00, 0x00, 0x14, 0x00, 0x00, 0x00, 0x34, 0x00, 0x00, 0x00, 0x02, 0x00, 0x00, 0x00, 0x10, 0x00, 0x00, 0x00, 0x80, 0x00, 0x00, 0x00, 0x1c, 0x00, 0x00, 0x00, 0x73, 0x65, 0x71, 0x75, 0x65, 0x6e, 0x74, 0x69, 0x61, 0x6c, 0x5f, 0x39, 0x2f, 0x64, 0x65, 0x6e, 0x73, 0x65, 0x5f, 0x32, 0x32, 0x2f, 0x4d, 0x61, 0x74, 0x4d, 0x75, 0x6c, 0x00, 0x00, 0x00, 0x00, 0x68, 0xfe, 0xff, 0xff, 0x86, 0xff, 0xff, 0xff, 0x04, 0x00, 0x00, 0x00, 0x0c, 0x00, 0x00, 0x00, 0xca, 0x5d, 0x86, 0x3e, 0x12, 0x0d, 0xc0, 0xbf, 0xd7, 0xb4, 0xb2, 0xbc, 0x4a, 0xff, 0xff, 0xff, 0x10, 0x00, 0x00, 0x00, 0x03, 0x00, 0x00, 0x00, 0x10, 0x00, 0x00, 0x00, 0x4c, 0x00, 0x00, 0x00, 0x01, 0x00, 0x00, 0x00, 0x03, 0x00, 0x00, 0x00, 0x35, 0x00, 0x00, 0x00, 0x73, 0x65, 0x71, 0x75, 0x65, 0x6e, 0x74, 0x69, 0x61, 0x6c, 0x5f, 0x39, 0x2f, 0x64, 0x65, 0x6e, 0x73, 0x65, 0x5f, 0x32, 0x33, 0x2f, 0x42, 0x69, 0x61, 0x73, 0x41, 0x64, 0x64, 0x2f, 0x52, 0x65, 0x61, 0x64, 0x56, 0x61, 0x72, 0x69, 0x61, 0x62, 0x6c, 0x65, 0x4f, 0x70, 0x2f, 0x72, 0x65, 0x73, 0x6f, 0x75, 0x72, 0x63, 0x65, 0x00, 0x00, 0x00, 0x04, 0x00, 0x06, 0x00, 0x04, 0x00, 0x00, 0x00, 0x00, 0x00, 0x06, 0x00, 0x08, 0x00, 0x04, 0x00, 0x06, 0x00, 0x00, 0x00, 0x04, 0x00, 0x00, 0x00, 0x40, 0x00, 0x00, 0x00, 0x71, 0x07, 0xdf, 0x3e, 0x12, 0x6a, 0x78, 0xbc, 0x61, 0x42, 0x14, 0xbd, 0xf7, 0xfb, 0xa1, 0x3b, 0x60, 0xfc, 0xa1, 0xbd, 0xfc, 0x2e, 0x87, 0xbb, 0x37, 0xb7, 0x3c, 0xbe, 0x8b, 0x02, 0x16, 0xbf, 0x83, 0x58, 0x0f, 0x3e, 0xbd, 0x89, 0x0a, 0x3c, 0xf3, 0xac, 0x5b, 0xbf, 0xbb, 0x96, 0x5e, 0xbe, 0xaf, 0x3d, 0xdb, 0xbb, 0xe1, 0xd3, 0xa9, 0xbe, 0x9b, 0xe3, 0xf9, 0xbe, 0xc8, 0xdb, 0x21, 0xbf, 0x00, 0x00, 0x0e, 0x00, 0x14, 0x00, 0x04, 0x00, 0x00, 0x00, 0x08, 0x00, 0x0c, 0x00, 0x10, 0x00, 0x0e, 0x00, 0x00, 0x00, 0x10, 0x00, 0x00, 0x00, 0x02, 0x00, 0x00, 0x00, 0x10, 0x00, 0x00, 0x00, 0x48, 0x00, 0x00, 0x00, 0x01, 0x00, 0x00, 0x00, 0x10, 0x00, 0x00, 0x00, 0x35, 0x00, 0x00, 0x00, 0x73, 0x65, 0x71, 0x75, 0x65, 0x6e, 0x74, 0x69, 0x61, 0x6c, 0x5f, 0x39, 0x2f, 0x64, 0x65, 0x6e, 0x73, 0x65, 0x5f, 0x32, 0x32, 0x2f, 0x42, 0x69, 0x61, 0x73, 0x41, 0x64, 0x64, 0x2f, 0x52, 0x65, 0x61, 0x64, 0x56, 0x61, 0x72, 0x69, 0x61, 0x62, 0x6c, 0x65, 0x4f, 0x70, 0x2f, 0x72, 0x65, 0x73, 0x6f, 0x75, 0x72, 0x63, 0x65, 0x00, 0x00, 0x00, 0xa0, 0xff, 0xff, 0xff, 0x14, 0x00, 0x18, 0x00, 0x04, 0x00, 0x00, 0x00, 0x08, 0x00, 0x0c, 0x00, 0x10, 0x00, 0x00, 0x00, 0x00, 0x00, 0x14, 0x00, 0x14, 0x00, 0x00, 0x00, 0x14, 0x00, 0x00, 0x00, 0x01, 0x00, 0x00, 0x00, 0x18, 0x00, 0x00, 0x00, 0x34, 0x00, 0x00, 0x00, 0x24, 0x00, 0x00, 0x00, 0x02, 0x00, 0x00, 0x00, 0x01, 0x00, 0x00, 0x00, 0x80, 0x00, 0x00, 0x00, 0x0e, 0x00, 0x00, 0x00, 0x64, 0x65, 0x6e, 0x73, 0x65, 0x5f, 0x32, 0x32, 0x5f, 0x69, 0x6e, 0x70, 0x75, 0x74, 0x00, 0x00, 0x02, 0x00, 0x00, 0x00, 0xff, 0xff, 0xff, 0xff, 0x80, 0x00, 0x00, 0x00, 0xfc, 0xff, 0xff, 0xff, 0x04, 0x00, 0x04, 0x00, 0x04, 0x00, 0x00, 0x00};
const int model_data_len = 9884;
